<unk>	0
<s>	0
</s>	0
冠冠	-0
冠冠冠冠	-1
冠冠冠冠冠冠冠冠	-2
冠冠冠冠冠冠冠冠冠冠冠冠冠冠冠冠	-3
冠冠冠	-4
冠冠冠冠冠	-5
((	-6
%%	-7
冠冠冠冠冠冠	-8
冠冠冠冠冠冠冠	-9
*+	-10
%(	-11
0+	-12
*(	-13
(%	-14
冠冠冠冠冠冠冠冠冠	-15
12	-16
02	-17
%$	-18
%&	-19
+*	-20
冠冠冠冠冠冠冠冠冠冠	-21
冠冠冠冠冠冠冠冠冠冠冠	-22
1+	-23
▁冠	-24
(*	-25
(+	-26
#$	-27
冠冠冠冠冠冠冠冠冠冠冠冠	-28
($	-29
(&	-30
**	-31
32	-32
冠冠冠冠冠冠冠冠冠冠冠冠冠	-33
++	-34
%*	-35
#&	-36
冠冠冠冠冠冠冠冠冠冠冠冠冠冠	-37
)$	-38
冠冠冠冠冠冠冠冠冠冠冠冠冠冠冠	-39
34	-40
+0	-41
14	-42
*2	-43
%#	-44
*&	-45
$%	-46
&%	-47
54	-48
*%	-49
$$	-50
&&	-51
+2	-52
+(	-53
00	-54
52	-55
#%	-56
*$	-57
)&	-58
$(	-59
$#	-60
3+	-61
&(	-62
22	-63
%)	-64
0(	-65
$)	-66
0*	-67
04	-68
%+	-69
#(	-70
$&	-71
74	-72
)%	-73
<6	-74
&#	-75
(#	-76
*0	-77
<>	-78
11	-79
20	-80
21	-81
2+	-82
5<	-83
&$	-84
10	-85
&)	-86
64	-87
#+	-88
&*	-89
24	-90
<@	-91
%!	-92
()	-93
23	-94
冒冠	-95
%((	-96
13	-97
0%	-98
$*	-99
)(	-100
7>	-101
+%	-102
44	-103
2*	-104
#!	-105
BB	-106
33	-107
$+	-108
)!	-109
*+0	-110
(%%	-111
1*	-112
>4	-113
*+*	-114
0&	-115
77	-116
))	-117
42	-118
01	-119
+1	-120
%(%	-121
3<	-122
57	-123
&+	-124
37	-125
*((	-126
31	-127
0+0	-128
(!	-129
6<	-130
$%%	-131
$((	-132
+#	-133
%%%	-134
##	-135
0+*	-136
>:	-137
(0	-138
@:	-139
%0	-140
!%	-141
)#	-142
5+	-143
$!	-144
冠冒	-145
)+	-146
<7	-147
(%(	-148
!#	-149
43	-150
41	-151
#)	-152
BA	-153
!)	-154
0$	-155
*++	-156
%(&	-157
>>	-158
%%&	-159
CB	-160
<5	-161
76	-162
1(	-163
@4	-164
30	-165
!$	-166
+$	-167
(($	-168
%%$	-169
(*+	-170
<4	-171
+&	-172
#*	-173
(2	-174
((%	-175
((&	-176
17	-177
AB	-178
(((	-179
&0	-180
62	-181
%($	-182
+4	-183
*+1	-184
022	-185
1<	-186
*(*	-187
>2	-188
%$%	-189
1+0	-190
#%%	-191
0+1	-192
!&	-193
72	-194
*+(	-195
121	-196
><	-197
6:	-198
!(	-199
*#	-200
@<	-201
53	-202
%*(	-203
0++	-204
2(	-205
0+(	-206
$0	-207
&%%	-208
73	-209
%$#	-210
45	-211
7<	-212
021	-213
%2	-214
?4	-215
&((	-216
120	-217
%&%	-218
%%(	-219
+3	-220
+)	-221
$(%	-222
>7	-223
#$%	-224
*4	-225
BC	-226
>8	-227
?:	-228
&!	-229
020	-230
((*	-231
1%	-232
&(%	-233
123	-234
<<	-235
023	-236
46	-237
1+*	-238
132	-239
+0+	-240
%$)	-241
(+*	-242
*0+	-243
40	-244
@8	-245
35	-246
*(0	-247
%%%%	-248
#2	-249
(&(	-250
)*	-251
122	-252
#$#	-253
68	-254
%*+	-255
(0+	-256
1+1	-257
+*+	-258
>?	-259
$2	-260
*%(	-261
03	-262
(*(	-263
00+	-264
?>	-265
$%(	-266
&%&	-267
#%(	-268
12+	-269
332	-270
冠冒冠	-271
($%	-272
(*&	-273
($(	-274
*($	-275
((((	-276
%++	-277
@9	-278
67	-279
*)	-280
<3	-281
(&%	-282
*1	-283
*%*	-284
47	-285
(+0	-286
&2	-287
(%$	-288
02+	-289
:>	-290
?8	-291
**+	-292
5>	-293
)%%	-294
(+(	-295
6>	-296
#++	-297
&*(	-298
#$)	-299
($#	-300
&%$	-301
(++	-302
*+2	-303
*%%	-304
11+	-305
#((	-306
#$(	-307
(*%	-308
25	-309
(*$	-310
4>	-311
6+	-312
%$(	-313
012	-314
:@	-315
*(%	-316
*+%	-317
)$%	-318
75	-319
++*	-320
%&(	-321
024	-322
((%(	-323
*!	-324
%&#	-325
112	-326
*+3	-327
<2	-328
*22	-329
+*%	-330
%*%	-331
55	-332
1&	-333
8>	-334
?9	-335
優優	-336
+*(	-337
#&%	-338
(&#	-339
!!	-340
144	-341
(%((	-342
01+	-343
$*(	-344
?<	-345
)%(	-346
#%$	-347
**$	-348
13+	-349
323	-350
+*$	-351
02*	-352
(%&	-353
#&(	-354
4+	-355
%%%(	-356
320	-357
15	-358
$%&	-359
0+%	-360
86	-361
*&(	-362
**&	-363
343	-364
*&*	-365
2%	-366
:6	-367
374	-368
)$#	-369
+*&	-370
BBB	-371
((%%	-372
7+	-373
:?	-374
20+	-375
@2	-376
>3	-377
($)	-378
((+	-379
321	-380
@?	-381
#%*	-382
4<	-383
%(%(	-384
)2	-385
71	-386
!%%	-387
(%*	-388
*%0	-389
AA	-390
$*+	-391
)%$	-392
342	-393
87	-394
&%(	-395
%&%%	-396
*(&	-397
1+(	-398
!+	-399
(%#	-400
51	-401
(+%	-402
++(	-403
12*	-404
3*	-405
?7	-406
032	-407
%1	-408
%&)	-409
*+$	-410
)$(	-411
142	-412
>9	-413
#+0	-414
352	-415
%+*	-416
>6	-417
冠冠冒	-418
31+	-419
8@	-420
574	-421
07	-422
*$(	-423
1$	-424
:7	-425
)$)	-426
#&#	-427
$%$	-428
334	-429
%%((	-430
%%#	-431
042	-432
124	-433
#0	-434
3>	-435
*02	-436
*(+	-437
0+2	-438
*+&	-439
+0(	-440
%%)	-441
*+**	-442
*$#	-443
*&%	-444
134	-445
$(*	-446
%(+	-447
<64	-448
27	-449
&4	-450
*20	-451
((0+	-452
(%)	-453
((0	-454
!*	-455
(&*	-456
*&#	-457
*+*(	-458
56	-459
*2+	-460
21+	-461
$%#	-462
%0+	-463
儒充	-464
(&)	-465
(((*	-466
8:	-467
543	-468
50	-469
((#	-470
*21	-471
*++*	-472
%(*	-473
%&&	-474
(1	-475
%*&	-476
2&	-477
%(%%	-478
%+(	-479
%+0	-480
#+2	-481
<1	-482
!((	-483
7:	-484
344	-485
>5	-486
#(*	-487
$%)	-488
%$%%	-489
002	-490
冠冠冠冒	-491
(+2	-492
*$*	-493
*+#	-494
($*	-495
2$	-496
*&0	-497
*1+	-498
*3	-499
%&$	-500
1>	-501
(02	-502
#+*	-503
<?	-504
454	-505
*+((	-506
%%!	-507
)($	-508
%+2	-509
*(%(	-510
#%&	-511
0+#	-512
>+	-513
$**	-514
0(*	-515
$+*	-516
)((	-517
69	-518
冒冠冠	-519
#(%	-520
534	-521
(&((	-522
#$&	-523
523	-524
(+&	-525
)%&	-526
<8	-527
%%(%	-528
*%((	-529
?6	-530
*23	-531
5<4	-532
0+3	-533
(4	-534
充儒	-535
#($	-536
&1	-537
143	-538
#(&	-539
)&(	-540
<>2	-541
$#$	-542
0(0	-543
$4	-544
%%*	-545
*+1+	-546
+!	-547
+12	-548
▁冠冒	-549
%4	-550
%#$	-551
#&*	-552
((!	-553
+02	-554
:8	-555
0+$	-556
)&%	-557
212	-558
232	-559
36	-560
147	-561
*(%%	-562
7?	-563
*$)	-564
(%%%	-565
#&$	-566
&*+	-567
)$$	-568
$1	-569
544	-570
冠冠冠冠冒	-571
78	-572
)%*	-573
12(	-574
9@	-575
*0&	-576
0((	-577
$++	-578
532	-579
6?	-580
)++	-581
(+$	-582
*12	-583
<62	-584
??	-585
+**	-586
%$&	-587
%%(*	-588
0+*(	-589
充優	-590
3+1	-591
#(+	-592
05	-593
#$*	-594
$&&	-595
79	-596
$(#	-597
%02	-598
%&((	-599
*(((	-600
152	-601
<>7	-602
0+00	-603
0+&	-604
1++	-605
*(**	-606
0#	-607
%**	-608
+++	-609
347	-610
<54	-611
*%#	-612
141	-613
%$$	-614
%%&%	-615
+044	-616
#4	-617
&**	-618
*(#	-619
*32	-620
7@	-621
1+3	-622
$(+	-623
1+%	-624
%%$%	-625
34<	-626
545	-627
%(&%	-628
(((%	-629
&(&	-630
&+*	-631
*24	-632
*+00	-633
8?	-634
%(#	-635
)(*	-636
66	-637
%*$	-638
+20	-639
025	-640
044	-641
9>	-642
12&	-643
%3	-644
1+#	-645
547	-646
#$$	-647
&(*	-648
)(+	-649
+0*	-650
*++(	-651
2#	-652
%(!	-653
(22	-654
%$(%	-655
0+**	-656
冒冠冠冠	-657
$+(	-658
)(%	-659
)(&	-660
+((	-661
5:	-662
0%0	-663
63	-664
#&&	-665
(%0	-666
521	-667
034	-668
145	-669
3+3	-670
645	-671
AC	-672
<:	-673
優充	-674
572	-675
((+*	-676
#%#	-677
(+1	-678
)&&	-679
125	-680
*+0+	-681
*&)	-682
**0	-683
542	-684
$($	-685
+1+	-686
0+0+	-687
85	-688
優兆	-689
$&%	-690
+*2	-691
520	-692
5<7	-693
*+0(	-694
冠冠冠冠冠冒	-695
&3	-696
!(%	-697
#&)	-698
$)$	-699
@<@	-700
%+%	-701
((&(	-702
!%(	-703
%&(%	-704
$#%	-705
02(	-706
52*	-707
324	-708
541	-709
#$%%	-710
((&%	-711
)0	-712
冠冕	-713
16	-714
$(&	-715
32*	-716
3<4	-717
0+0*	-718
0<	-719
)&$	-720
774	-721
*+(*	-722
9?	-723
12$	-724
$3	-725
043	-726
%(&(	-727
*(*(	-728
546	-729
@7	-730
$&#	-731
%&*	-732
&($	-733
14<	-734
*+32	-735
&++	-736
+00	-737
345	-738
%$((	-739
*%)	-740
0++*	-741
7><	-742
%(%*	-743
89	-744
CA	-745
$#&	-746
00&	-747
(12	-748
*0$	-749
*2*	-750
24:	-751
+0%	-752
1+$	-753
+5	-754
&#$	-755
*+)	-756
02%	-757
341	-758
64>	-759
$&)	-760
+2+	-761
11&	-762
((%*	-763
2<	-764
%#%	-765
)&#	-766
***	-767
(%%(	-768
&+(	-769
*%+	-770
冒冠冠冠冠	-771
%$*	-772
(%+	-773
%%+	-774
*(1	-775
*%*(	-776
(()	-777
**%	-778
84	-779
$+0	-780
++0	-781
00$	-782
322	-783
5<@	-784
646	-785
?<@	-786
(&(%	-787
(3	-788
$$)	-789
(2+	-790
+22	-791
&&%	-792
12%	-793
(+((	-794
+2*	-795
0%*	-796
372	-797
325	-798
(($%	-799
儒優	-800
$$$	-801
%!%	-802
#+(	-803
(++*	-804
4*	-805
0+)	-806
%($%	-807
)$%%	-808
#!#	-809
$%*	-810
)$&	-811
*()	-812
*+(%	-813
%()	-814
&$%	-815
$$%	-816
$()	-817
#%((	-818
*++0	-819
0+((	-820
<52	-821
*(+*	-822
023+	-823
&&$	-824
*+0*	-825
02+*	-826
@>	-827
儒儡	-828
&&&	-829
(&$	-830
)+0	-831
3(	-832
)+*	-833
+7	-834
98	-835
&(#	-836
(&0	-837
#&%%	-838
($((	-839
(&*(	-840
027	-841
+21	-842
@:>	-843
%22	-844
#&((	-845
11+*	-846
#1	-847
&(+	-848
)&*	-849
++#	-850
0(#	-851
&$#	-852
&+0	-853
(1+	-854
*0%	-855
儒儿	-856
&()	-857
047	-858
32+	-859
($(%	-860
冠冠冠冠冠冠冒	-861
04+	-862
冒冠冒	-863
#$((	-864
#&(%	-865
(*%(	-866
*+12	-867
0!	-868
0)	-869
021+	-870
02&	-871
3+*	-872
525	-873
(*%*	-874
$0+	-875
++%	-876
%%$#	-877
&%#	-878
33+	-879
76>	-880
<>4	-881
$$#	-882
(#$	-883
+($	-884
+0&	-885
0+0(	-886
88	-887
#!%	-888
#!)	-889
+2(	-890
%%%&	-891
$*%	-892
)$*	-893
!2	-894
(%!	-895
*44	-896
1210	-897
冕冠	-898
354	-899
(&%%	-900
**%*	-901
3%	-902
(**	-903
(%*(	-904
&%)	-905
00%	-906
14+	-907
772	-908
#*+	-909
&$)	-910
(0(	-911
)!)	-912
)&)	-913
03+	-914
210	-915
432	-916
54@	-917
5<<	-918
<@4	-919
#22	-920
*25	-921
2)	-922
%#&	-923
&$&	-924
*$%	-925
02$	-926
&%*	-927
(*2	-928
312	-929
<75	-930
%(0	-931
32(	-932
97	-933
&*%	-934
**(	-935
+25	-936
3+0	-937
340	-938
1+12	-939
58	-940
<9	-941
*+*+	-942
0212	-943
冒冠冠冠冠冠	-944
<0	-945
>1	-946
%+1	-947
(%(%	-948
%!)	-949
21*	-950
346	-951
@4@	-952
#$(%	-953
+(%	-954
+24	-955
0+12	-956
0220	-957
0242	-958
儒儉	-959
5<>	-960
%(%$	-961
!%&	-962
*%1	-963
1212	-964
::	-965
#+%	-966
%#!	-967
($$	-968
57<	-969
33+*	-970
$#(	-971
<@2	-972
*((*	-973
*+%(	-974
0+(*	-975
01+*	-976
!0	-977
?2	-978
养冠	-979
++2	-980
6<7	-981
(%**	-982
6431+	-983
8<	-984
&0+	-985
0&*	-986
(*+0	-987
*&*(	-988
*7	-989
(++(	-990
65	-991
)!#	-992
0*2	-993
1+)	-994
7>4	-995
%%%$	-996
%*((	-997
77+044	-998
#2+	-999
$&$	-1000
%!#	-1001
+04	-1002
674	-1003
($*(	-1004
(($#	-1005
<+	-1006
$$&	-1007
(+#	-1008
)!%	-1009
102	-1010
6<6	-1011
%(+0	-1012
?3	-1013
#+$	-1014
%12	-1015
(24	-1016
*$0	-1017
%%$)	-1018
%%%#	-1019
%%*(	-1020
:4	-1021
++)	-1022
**+0	-1023
冠冠冠冠冠冠冠冒	-1024
)4	-1025
>@	-1026
(&&	-1027
(0%	-1028
%(((	-1029
%(*(	-1030
(*&(	-1031
3420	-1032
優儀	-1033
%)$	-1034
**2	-1035
+32	-1036
1+2	-1037
(($(	-1038
((*(	-1039
**%(	-1040
70	-1041
#%!	-1042
%*2	-1043
140	-1044
#(%(	-1045
(%%#	-1046
((%#	-1047
:5	-1048
$%!	-1049
$%+	-1050
++$	-1051
0*0	-1052
045	-1053
174	-1054
442	-1055
BAA	-1056
14+*	-1057
0&0	-1058
<><	-1059
%%%*	-1060
0+10	-1061
:<	-1062
儀儀	-1063
儿儒	-1064
$)&	-1065
&%!	-1066
+(+	-1067
3<@	-1068
732	-1069
><6	-1070
*+34	-1071
14+0	-1072
$*2	-1073
*+!	-1074
41+	-1075
((&#	-1076
((+(	-1077
0+1+	-1078
$&(	-1079
10+	-1080
5<5	-1081
AAB	-1082
%%37	-1083
%($#	-1084
*+*%	-1085
%(%&	-1086
%(&#	-1087
)1	-1088
$)%	-1089
&&#	-1090
&*2	-1091
326	-1092
%((%	-1093
**+*	-1094
&$$	-1095
154	-1096
422	-1097
%%%)	-1098
%(+*	-1099
(*((	-1100
)$((	-1101
優儒	-1102
%+$	-1103
%2+	-1104
5<6	-1105
($%%	-1106
*+*0	-1107
*+3+	-1108
%&!	-1109
*34	-1110
<@:	-1111
%%(&	-1112
*%**	-1113
*(+(	-1114
0224	-1115
33+0	-1116
#%)	-1117
(#&	-1118
)%!	-1119
0(2	-1120
20%	-1121
21(	-1122
<6:	-1123
冠冠冒冠	-1124
&&)	-1125
(!#	-1126
000	-1127
*((%	-1128
1211	-1129
13+*	-1130
*<	-1131
!%$	-1132
##%	-1133
*+4	-1134
041	-1135
34+	-1136
冠冠冕	-1137
(++0	-1138
*+%%	-1139
*++%	-1140
0(*(	-1141
)*+	-1142
1+&	-1143
754	-1144
)$(%	-1145
*0+0	-1146
0210	-1147
?@	-1148
(*!	-1149
)+2	-1150
+%(	-1151
3<7	-1152
643	-1153
%&%(	-1154
*&**	-1155
0232	-1156
12+*	-1157
*5	-1158
&#&	-1159
0%(	-1160
3<>	-1161
#++*	-1162
)&%%	-1163
*+(#	-1164
022*	-1165
1242	-1166
1442	-1167
冠冠冠冒冠	-1168
*42	-1169
146	-1170
240	-1171
CBC	-1172
(&**	-1173
1+*(	-1174
&+%	-1175
222	-1176
%%&#	-1177
(%+*	-1178
(+(*	-1179
26	-1180
!%#	-1181
!*(	-1182
11$	-1183
64@	-1184
BCA	-1185
#$%&	-1186
((+0	-1187
@<87	-1188
$$(	-1189
%#(	-1190
%$%&	-1191
%$*(	-1192
(%%)	-1193
(+*(	-1194
1200	-1195
#%+	-1196
$+2	-1197
($&	-1198
(*0	-1199
22*	-1200
231	-1201
254	-1202
647	-1203
?<>	-1204
+(&	-1205
625	-1206
><@	-1207
#%%%	-1208
%%&&	-1209
%&*(	-1210
(((#	-1211
(*+*	-1212
3&	-1213
僳儉	-1214
%+&	-1215
%32	-1216
*27	-1217
0(%	-1218
(($)	-1219
*+1*	-1220
+6	-1221
83	-1222
#(#	-1223
(20	-1224
+0$	-1225
220	-1226
#%%(	-1227
%%14	-1228
%(%#	-1229
%(+(	-1230
(*&*	-1231
0++(	-1232
0202	-1233
1+1+	-1234
)%+	-1235
*&+	-1236
*14	-1237
+14	-1238
0()	-1239
22+	-1240
%(($	-1241
%++*	-1242
0+(%	-1243
0+*0	-1244
<674	-1245
冠冠冠冠冠冠冠冠冒	-1246
#+&	-1247
%+#	-1248
>2>	-1249
@<?	-1250
%($(	-1251
((++	-1252
*+20	-1253
12>:	-1254
3$	-1255
10$	-1256
>46	-1257
%%&(	-1258
*+++	-1259
5254	-1260
#+1	-1261
(32	-1262
11%	-1263
6+5	-1264
>74	-1265
%&%&	-1266
*+1(	-1267
$*&	-1268
%21	-1269
&02	-1270
(21	-1271
+23	-1272
247	-1273
:>9	-1274
#(+*	-1275
%#%(	-1276
(*%%	-1277
)&((	-1278
00%*	-1279
82	-1280
#0+	-1281
$0*	-1282
1+!	-1283
114	-1284
127	-1285
$%((	-1286
(*$#	-1287
+*22	-1288
@4@:	-1289
!&&	-1290
#&0	-1291
$+%	-1292
(23	-1293
3+#	-1294
526	-1295
6:@	-1296
*$*(	-1297
*&((	-1298
*(%#	-1299
*+10	-1300
*0+*	-1301
冠冠冠冠冠冠冠冠冠冒	-1302
!$$	-1303
&00	-1304
**!	-1305
100	-1306
13<	-1307
7@:	-1308
??:	-1309
*+2*	-1310
#%0	-1311
054	-1312
202	-1313
37<	-1314
5+3	-1315
><>	-1316
(*$(	-1317
(+(%	-1318
0+02	-1319
12**	-1320
!%)	-1321
0+4	-1322
224	-1323
<5:	-1324
%&%)	-1325
%(++	-1326
0+42	-1327
120*	-1328
1220	-1329
5(	-1330
$22	-1331
&$(	-1332
&%+	-1333
10&	-1334
2+*	-1335
241	-1336
524	-1337
6<5	-1338
$%%$	-1339
$02	-1340
%$!	-1341
6<4	-1342
734	-1343
@8:	-1344
冕冠冠	-1345
%((*	-1346
*++#	-1347
0+*+	-1348
?<64	-1349
冠冠冠冠冠冠冠冠冠冠冒	-1350
#$0	-1351
%0(	-1352
++&	-1353
3+4	-1354
768	-1355
><3	-1356
%&(*	-1357
%($)	-1358
1232	-1359
2332	-1360
$$!	-1361
014	-1362
040	-1363
230	-1364
244	-1365
6<>	-1366
ABA	-1367
((%)	-1368
**&(	-1369
*+02	-1370
*220	-1371
0+*%	-1372
121+	-1373
!4	-1374
:9	-1375
儒兆	-1376
#21	-1377
%!(	-1378
%0*	-1379
%1+	-1380
01(	-1381
440	-1382
<32	-1383
<6<	-1384
%#%%	-1385
%%(#	-1386
(((&	-1387
*&(%	-1388
*(%*	-1389
!(*	-1390
)$!	-1391
)+(	-1392
++5	-1393
1(*	-1394
23*	-1395
743	-1396
@<>	-1397
#&*(	-1398
(%(*	-1399
(+13	-1400
231+	-1401
2>	-1402
%%0	-1403
%*0	-1404
(!%	-1405
(!(	-1406
*+5	-1407
00*	-1408
%&**	-1409
*(*%	-1410
*(0(	-1411
0222	-1412
31+*	-1413
冠冒冠冠冠	-1414
冒冠冠冠冠冠冠	-1415
#!(	-1416
*2(	-1417
52+	-1418
充充儒	-1419
(%&%	-1420
(%(#	-1421
((13	-1422
)%((	-1423
0214	-1424
冠冠冠冠冒冠	-1425
5?	-1426
7*	-1427
&*&	-1428
04<	-1429
3>4	-1430
6<@	-1431
>:>	-1432
@>>	-1433
%+*(	-1434
**((	-1435
*+31	-1436
1+00	-1437
34<<	-1438
冠冠冠冠冠冒冠	-1439
1#	-1440
5*	-1441
!(+	-1442
$<@	-1443
&)$	-1444
0**	-1445
2+%	-1446
#((*	-1447
&&%%	-1448
(+0+	-1449
34+0	-1450
*27><	-1451
60	-1452
>*	-1453
$*$	-1454
&#%	-1455
&0*	-1456
(&+	-1457
+*0	-1458
12#	-1459
6:4	-1460
<@9	-1461
)&(%	-1462
**&*	-1463
*+*$	-1464
*+*&	-1465
0+++	-1466
02+(	-1467
&22	-1468
()$	-1469
)%#	-1470
234	-1471
243	-1472
>>4	-1473
#(%%	-1474
%$%(	-1475
(&%(	-1476
)%%%	-1477
5<<<	-1478
49	-1479
充元	-1480
!#$	-1481
%)%	-1482
(0&	-1483
+%%	-1484
2+#	-1485
20&	-1486
23+	-1487
242	-1488
245	-1489
3<3	-1490
((%$	-1491
((%&	-1492
*((#	-1493
1+0*	-1494
%(%((	-1495
((13+	-1496
##$	-1497
(!)	-1498
+(*	-1499
0$0	-1500
137	-1501
15<	-1502
752	-1503
$(%%	-1504
%%**	-1505
%(*+	-1506
%*%%	-1507
(%$%	-1508
(&(#	-1509
(0+0	-1510
0221	-1511
1+0(	-1512
121*	-1513
冒冠冠冠冠冠冠冠	-1514
写冠	-1515
%)&	-1516
&+2	-1517
($0	-1518
)+$	-1519
1((	-1520
110	-1521
5+*	-1522
$(($	-1523
%$%#	-1524
%&%#	-1525
*(+0	-1526
*212	-1527
>7?4	-1528
+<	-1529
>0	-1530
!&%	-1531
1+4	-1532
214	-1533
7>9	-1534
?>4	-1535
%%&)	-1536
%(0+	-1537
%*%(	-1538
%(&(%	-1539
#&!	-1540
*(!	-1541
+10	-1542
01&	-1543
3<6	-1544
5<2	-1545
5<3	-1546
764	-1547
((**	-1548
(*$%	-1549
(*&%	-1550
*+0%	-1551
*0%*	-1552
*2+*	-1553
冠冠冠冠冠冠冠冠冠冠冠冒	-1554
#$!	-1555
(+)	-1556
*&1	-1557
*2$	-1558
+%$	-1559
004	-1560
074	-1561
1+5	-1562
10%	-1563
20$	-1564
6?4	-1565
77<	-1566
#$%#	-1567
%&14	-1568
&%((	-1569
((&*	-1570
(+++	-1571
(+0(	-1572
+*2+	-1573
02+0	-1574
%5	-1575
兆優	-1576
冠养	-1577
!$%	-1578
#(!	-1579
%)(	-1580
+*!	-1581
00(	-1582
<@<	-1583
$%%&	-1584
(+%(	-1585
00+0	-1586
020+	-1587
3410	-1588
冠冠冠冠冠冠冠冠冠冠冠冠冠冒	-1589
?5	-1590
!$#	-1591
!$)	-1592
$+#	-1593
&&(	-1594
&*0	-1595
&21	-1596
)22	-1597
+2%	-1598
0(1	-1599
14@	-1600
2++	-1601
337	-1602
540	-1603
>?:	-1604
%&1<	-1605
**(*	-1606
@2@:	-1607
!)$	-1608
)+1	-1609
+%*	-1610
0*(	-1611
3+%	-1612
3<5	-1613
576	-1614
<77	-1615
%$%)	-1616
%&#%	-1617
(&*%	-1618
*+%*	-1619
*+()	-1620
0(%%	-1621
0+*$	-1622
0200	-1623
0252	-1624
!#&	-1625
#(0	-1626
&)&	-1627
*$+	-1628
+*#	-1629
+1*	-1630
221	-1631
6<3	-1632
<>>	-1633
>:6	-1634
*+*#	-1635
*+33	-1636
0++8	-1637
1422	-1638
38	-1639
3:	-1640
$)(	-1641
$00	-1642
%+)	-1643
&+#	-1644
*&$	-1645
*2&	-1646
+4*	-1647
3<<	-1648
43+	-1649
>:4	-1650
@:?	-1651
$%(%	-1652
($**	-1653
(%*%	-1654
0*%(	-1655
1+02	-1656
1+32	-1657
13+0	-1658
5264	-1659
7><5	-1660
冠冒冠冠	-1661
冠冠冠冠冠冠冒冠	-1662
(5	-1663
96	-1664
!$&	-1665
#*$	-1666
$#!	-1667
%00	-1668
%20	-1669
0*$	-1670
113	-1671
25<	-1672
54>	-1673
<40	-1674
<67	-1675
>4>	-1676
%%($	-1677
%*%*	-1678
&%%%	-1679
((*%	-1680
(*+(	-1681
(+%%	-1682
1221	-1683
2132	-1684
3400	-1685
52012	-1686
優儡	-1687
$04	-1688
)&!	-1689
*%$	-1690
+(#	-1691
+1(	-1692
01%	-1693
22(	-1694
23<	-1695
527	-1696
8>9	-1697
((*+	-1698
*+*2	-1699
0*%*	-1700
0++%	-1701
025+2	-1702
52*41	-1703
4@	-1704
61	-1705
<)	-1706
儿優	-1707
充僳	-1708
!(#	-1709
%&+	-1710
0+!	-1711
3+5	-1712
@26	-1713
BBC	-1714
BCB	-1715
$$%%	-1716
%%$$	-1717
%&(&	-1718
%*+0	-1719
&(%%	-1720
(%&(	-1721
((&)	-1722
(*&#	-1723
)$%(	-1724
++++	-1725
0+2*	-1726
0+32	-1727
1222	-1728
((%((	-1729
冠冠冠冠冠冠冠冠冠冠冠冠冠冠冒	-1730
1)	-1731
3?	-1732
99	-1733
!($	-1734
!+(	-1735
##&	-1736
#*&	-1737
#23	-1738
)*&	-1739
+34	-1740
13*	-1741
172	-1742
:@4	-1743
#$(#	-1744
#%*(	-1745
%%$(	-1746
(((0	-1747
)(+*	-1748
02**	-1749
#*2	-1750
$*0	-1751
$+$	-1752
$12	-1753
)#$	-1754
)%0	-1755
+%+	-1756
2+(	-1757
20(	-1758
<>+	-1759
BAB	-1760
$(*(	-1761
%$%$	-1762
%&&%	-1763
((0(	-1764
(*++	-1765
*(34	-1766
*0+1	-1767
*241	-1768
+022	-1769
0+1*	-1770
5252	-1771
*+574	-1772
2!	-1773
@3	-1774
儉儒	-1775
!#%	-1776
0$*	-1777
0+5	-1778
2*2	-1779
626	-1780
@73	-1781
%&&&	-1782
*(()	-1783
0+0%	-1784
00(*	-1785
02*(	-1786
021*	-1787
022+	-1788
3241	-1789
%%&%%	-1790
4:	-1791
$2+	-1792
%)!	-1793
%23	-1794
(+!	-1795
(14	-1796
(42	-1797
*00	-1798
+#+	-1799
0*+	-1800
1%*	-1801
1<7	-1802
314	-1803
5<?	-1804
BBA	-1805
#$*(	-1806
#%$)	-1807
#&(#	-1808
#+2*	-1809
%$#%	-1810
%%$&	-1811
%(+%	-1812
($%(	-1813
(%&#	-1814
(&()	-1815
*++)	-1816
0++?	-1817
(7	-1818
#*%	-1819
&&!	-1820
*&&	-1821
2*+	-1822
2+0	-1823
4>4	-1824
@2>	-1825
#&%#	-1826
$%(&	-1827
%#$%	-1828
%(*%	-1829
((($	-1830
0*((	-1831
02++	-1832
122*	-1833
冠冠冠冠冠冠冠冠冠冠冠冠冒	-1834
!1	-1835
7(	-1836
優儿	-1837
$+&	-1838
%2*	-1839
&(!	-1840
($+	-1841
(&!	-1842
)%)	-1843
+40	-1844
0%#	-1845
0&(	-1846
0&1	-1847
0*%	-1848
33<	-1849
5+0	-1850
522	-1851
73>	-1852
<61	-1853
>26	-1854
#&%(	-1855
#&**	-1856
(&(*	-1857
(++%	-1858
*(&%	-1859
*(1+	-1860
1++(	-1861
12+0	-1862
4&	-1863
(0$	-1864
13$	-1865
32$	-1866
474	-1867
7>6	-1868
<45	-1869
<>3	-1870
<@8	-1871
>4@	-1872
#$%(	-1873
%((&	-1874
%+((	-1875
&$%%	-1876
(%+(	-1877
(+20	-1878
0+20	-1879
1+((	-1880
12+8	-1881
142*	-1882
3411	-1883
?464	-1884
冒冠冒冠	-1885
冠冠冠冕	-1886
冠冠冠冠冕	-1887
06	-1888
4$	-1889
$20	-1890
(#%	-1891
)*$	-1892
*0(	-1893
*3+	-1894
+11	-1895
0%1	-1896
0*&	-1897
14>	-1898
2+$	-1899
2+2	-1900
364	-1901
@:@	-1902
#%(%	-1903
#(((	-1904
%*+*	-1905
&(*(	-1906
)$%#	-1907
*+2(	-1908
+*%(	-1909
0244	-1910
1+0+	-1911
1+10	-1912
120(	-1913
1224	-1914
14+4	-1915
6><6	-1916
*6	-1917
)!&	-1918
)!(	-1919
)+%	-1920
*2%	-1921
+#$	-1922
+54	-1923
0&#	-1924
444	-1925
577	-1926
57>	-1927
736	-1928
8>4	-1929
>>>	-1930
%%+(	-1931
%&(#	-1932
)%$%	-1933
*$((	-1934
*(++	-1935
**&#	-1936
120+	-1937
123+	-1938
143+	-1939
(6	-1940
!&#	-1941
!&$	-1942
!(&	-1943
#20	-1944
%#+	-1945
%04	-1946
&+$	-1947
&04	-1948
()(	-1949
)&+	-1950
327	-1951
552	-1952
762	-1953
<87	-1954
@<5	-1955
%%*%	-1956
%(&&	-1957
%(*$	-1958
%*&(	-1959
&&&&	-1960
(%()	-1961
(++#	-1962
(++2	-1963
)%$#	-1964
*(*0	-1965
**%%	-1966
*+21	-1967
0+*&	-1968
0211	-1969
12+(	-1970
1231	-1971
1254	-1972
320*	-1973
>2>:	-1974
&*$	-1975
0&+	-1976
452	-1977
?>>	-1978
#%$#	-1979
#%+*	-1980
%$#$	-1981
%(&)	-1982
%(*&	-1983
(*$*	-1984
(*%#	-1985
)%&%	-1986
0%**	-1987
0+%(	-1988
1+**	-1989
3200	-1990
<@:>	-1991
!()	-1992
!**	-1993
#!&	-1994
#44	-1995
$23	-1996
)(!	-1997
))$	-1998
)2+	-1999
03<	-2000
21<	-2001
31(	-2002
<@7	-2003
<@?	-2004
><5	-2005
?:@	-2006
$((%	-2007
%+(%	-2008
&%%&	-2009
&(($	-2010
(%$(	-2011
(&%)	-2012
+1+*	-2013
0(%(	-2014
0*%%	-2015
01&4	-2016
32*+	-2017
7><6	-2018
((12(	-2019
%7	-2020
18	-2021
9<	-2022
儀優	-2023
冉冠	-2024
!&)	-2025
$$+	-2026
&20	-2027
(#!	-2028
)*2	-2029
)+&	-2030
*%&	-2031
+44	-2032
0*1	-2033
101	-2034
11(	-2035
164	-2036
17<	-2037
31&	-2038
536	-2039
54<	-2040
741	-2041
#%%#	-2042
#%&%	-2043
%)%%	-2044
($*+	-2045
)$*(	-2046
*(*&	-2047
++((	-2048
0++#	-2049
007<	-2050
140*	-2051
21+*	-2052
3473	-2053
3743	-2054
<@7?	-2055
<@:8	-2056
%%%((	-2057
*+24:	-2058
4?	-2059
>(	-2060
儿充	-2061
关关	-2062
$+)	-2063
%14	-2064
%24	-2065
)&0	-2066
*(2	-2067
++1	-2068
+01	-2069
0%%	-2070
01$	-2071
026	-2072
1(1	-2073
111	-2074
54+	-2075
725	-2076
745	-2077
8@<	-2078
%#&%	-2079
((*0	-2080
*%(%	-2081
**&%	-2082
++*(	-2083
0++0	-2084
02*0	-2085
1+*+	-2086
1241	-2087
1244	-2088
5441	-2089
<6<7	-2090
冠冒冠冠冠冠	-2091
!++	-2092
#**	-2093
$&!	-2094
$4>	-2095
&+&	-2096
&12	-2097
(+3	-2098
)(#	-2099
001	-2100
04>	-2101
126	-2102
2*&	-2103
223	-2104
32%	-2105
430	-2106
$&%%	-2107
$&((	-2108
%(%)	-2109
($(#	-2110
((*&	-2111
)%%(	-2112
*2@:	-2113
020*	-2114
1432	-2115
5410	-2116
冒冠冠冠冠冠冠冠冠	-2117
81	-2118
<*	-2119
>%	-2120
#&+	-2121
$)!	-2122
$21	-2123
%0%	-2124
($!	-2125
(2*	-2126
)#%	-2127
+*)	-2128
0(+	-2129
1<4	-2130
2*$	-2131
2*(	-2132
3+)	-2133
5>6	-2134
773	-2135
8@4	-2136
<34	-2137
>43	-2138
>?<	-2139
#%$%	-2140
#&%&	-2141
%!%%	-2142
%$(&	-2143
%%*&	-2144
%(&*	-2145
(+00	-2146
(320	-2147
*%0*	-2148
*021	-2149
+*%*	-2150
12*(	-2151
1230	-2152
1420	-2153
3+0+	-2154
6<14	-2155
77+0441(	-2156
0>	-2157
#$+	-2158
$(!	-2159
(04	-2160
+()	-2161
052	-2162
1*4	-2163
12>	-2164
13%	-2165
13&	-2166
178	-2167
22$	-2168
26<	-2169
9@4	-2170
<63	-2171
@8>	-2172
!%((	-2173
#$%)	-2174
$((&	-2175
%%#%	-2176
%(*2	-2177
%*&*	-2178
(&*+	-2179
((*$	-2180
*&*+	-2181
*(0+	-2182
*(00	-2183
0+01	-2184
112:	-2185
12&?	-2186
321+	-2187
7>>:	-2188
<@:?	-2189
>2@:	-2190
>454	-2191
9:	-2192
?1	-2193
#()	-2194
$0(	-2195
&!)	-2196
((2	-2197
(+4	-2198
*04	-2199
+*4	-2200
+2#	-2201
+2$	-2202
1**	-2203
14*	-2204
2+&	-2205
3+(	-2206
503	-2207
7<5	-2208
優充元	-2209
$$$$	-2210
$(%$	-2211
$*((	-2212
&((&	-2213
(%$#	-2214
(%$)	-2215
(*%0	-2216
(*0+	-2217
(0+*	-2218
)&%(	-2219
*22*	-2220
0021	-2221
1452	-2222
*+374	-2223
54012	-2224
儀充	-2225
!+*	-2226
$#)	-2227
%+4	-2228
+%#	-2229
34@	-2230
554	-2231
623	-2232
684	-2233
<>1	-2234
#$%$	-2235
#&%)	-2236
#*+0	-2237
%$**	-2238
%%+0	-2239
%&*%	-2240
(((+	-2241
*($%	-2242
*+%#	-2243
*+54	-2244
0%*(	-2245
0(+*	-2246
0+1(	-2247
02@:	-2248
14<<	-2249
((&(%	-2250
冠冠冠冠冠冠冠冠冠冒冠	-2251
%6	-2252
<#	-2253
儒儀	-2254
充儀	-2255
%!$	-2256
%*)	-2257
&#!	-2258
&#(	-2259
)*%	-2260
+37	-2261
+43	-2262
237	-2263
32#	-2264
742	-2265
76<	-2266
:62	-2267
<3+	-2268
>25	-2269
>45	-2270
><?	-2271
儿充儒	-2272
冠冠兽	-2273
%&($	-2274
&%%$	-2275
&(%(	-2276
($()	-2277
)%$)	-2278
*020	-2279
+*0+	-2280
00((	-2281
1++*	-2282
1454	-2283
172+	-2284
3+1+	-2285
3210	-2286
3431	-2287
86<6	-2288
<>?<	-2289
<@<?	-2290
@464	-2291
%%%*+0	-2292
冠冒冠冠冠冠冠	-2293
優僳	-2294
充充	-2295
%0&	-2296
&0(	-2297
)$+	-2298
*01	-2299
*52	-2300
+&*	-2301
+0#	-2302
0$#	-2303
0*!	-2304
103	-2305
252	-2306
32&	-2307
5+4	-2308
641	-2309
#$**	-2310
#(+0	-2311
%%&*	-2312
%(**	-2313
%*++	-2314
&%&%	-2315
($(+	-2316
(&%&	-2317
(&($	-2318
)(%(	-2319
)++*	-2320
*%(*	-2321
++*+	-2322
+0+0	-2323
0*+*	-2324
0+*)	-2325
0+*2	-2326
01+0	-2327
12(*	-2328
12+>	-2329
1252	-2330
35**	-2331
>66>	-2332
@<85	-2333
(*%((	-2334
<>2@?	-2335
#*(	-2336
&!#	-2337
(44	-2338
*$$	-2339
+5<	-2340
02<	-2341
05<	-2342
34>	-2343
5+1	-2344
?:>	-2345
?>2	-2346
#$()	-2347
%(+2	-2348
&&((	-2349
($#$	-2350
(*(*	-2351
(+*+	-2352
(+2*	-2353
*%*+	-2354
**$#	-2355
*21+	-2356
+*&*	-2357
00+%	-2358
04@?	-2359
13+(	-2360
3212	-2361
6>23	-2362
%%$%%	-2363
<>2@8	-2364
((13+46	-2365
冠冠冠冠冠冠冠冒冠	-2366
#3	-2367
95	-2368
:3	-2369
<$	-2370
儿僳	-2371
!&(	-2372
!)&	-2373
#12	-2374
$!$	-2375
%(2	-2376
&+1	-2377
&23	-2378
(34	-2379
+#&	-2380
+&#	-2381
+30	-2382
003	-2383
2+)	-2384
24*	-2385
2@<	-2386
414	-2387
:35	-2388
#(&%	-2389
$$((	-2390
$&%&	-2391
%#(*	-2392
%$($	-2393
%*$(	-2394
%*0+	-2395
&%(%	-2396
(%&)	-2397
(+%*	-2398
*&0+	-2399
**$(	-2400
++0+	-2401
025+	-2402
1201	-2403
1421	-2404
343+	-2405
▁冠冒冠	-2406
冕冠冠冠	-2407
%($(%	-2408
(*0+(	-2409
<>7*2	-2410
48	-2411
冒冒	-2412
%42	-2413
(#(	-2414
(2(	-2415
)*(	-2416
)0+	-2417
+$+	-2418
0$(	-2419
0%2	-2420
0&%	-2421
046	-2422
1<<	-2423
3<2	-2424
3<?	-2425
44+	-2426
62@	-2427
712	-2428
767	-2429
7>?	-2430
:55	-2431
?:4	-2432
@:8	-2433
#%14	-2434
%#%*	-2435
%$(*	-2436
%*($	-2437
%+0+	-2438
&%$&	-2439
&(*+	-2440
(#%(	-2441
(%0+	-2442
(*&)	-2443
(+0*	-2444
(+21	-2445
)$%&	-2446
)(&(	-2447
*%+(	-2448
*%0+	-2449
*23+	-2450
+132	-2451
0+*#	-2452
04+#	-2453
3323	-2454
%(%(%	-2455
0+00+	-2456
57+044	-2457
86(320	-2458
5&	-2459
!%+	-2460
#*0	-2461
#+#	-2462
#2*	-2463
%$+	-2464
&+)	-2465
++4	-2466
0*3	-2467
1*1	-2468
34*	-2469
3><	-2470
3?4	-2471
52@	-2472
53+	-2473
73+	-2474
#%**	-2475
%!((	-2476
%%+*	-2477
%&#&	-2478
%(&$	-2479
*+%)	-2480
*0&*	-2481
*221	-2482
+(%%	-2483
+*%%	-2484
+*++	-2485
+012	-2486
+312	-2487
0*00	-2488
1321	-2489
5431	-2490
!?	-2491
7$	-2492
@6	-2493
僳儀	-2494
冒冕	-2495
!)%	-2496
#)&	-2497
$*#	-2498
%!&	-2499
)#&	-2500
*%!	-2501
+3+	-2502
02#	-2503
2*4	-2504
744	-2505
<?9	-2506
>17	-2507
><7	-2508
>><	-2509
儿充優	-2510
#$(&	-2511
#&14	-2512
$%*(	-2513
%#((	-2514
%$#&	-2515
%&&)	-2516
(%#%	-2517
(%%&	-2518
(*$)	-2519
(0+1	-2520
)&*(	-2521
**%0	-2522
**+(	-2523
**21	-2524
*+11	-2525
00+*	-2526
04<5	-2527
1+1*	-2528
12<4	-2529
321*	-2530
3220	-2531
62>4	-2532
%(&%%	-2533
%(&((	-2534
*+11+	-2535
+254@	-2536
121*%	-2537
6431+14+0	-2538
+>	-2539
&2+	-2540
+42	-2541
078	-2542
14$	-2543
1>:	-2544
22%	-2545
233	-2546
5>4	-2547
7>2	-2548
:>4	-2549
<>?	-2550
>2@	-2551
兆儒優	-2552
冠冠写	-2553
#%&#	-2554
#(&(	-2555
$(*+	-2556
(%%$	-2557
(%&&	-2558
(&(&	-2559
((()	-2560
)&&%	-2561
*%(#	-2562
*%0(	-2563
*(*$	-2564
*+01	-2565
*2++	-2566
*2+0	-2567
0*13	-2568
0+0&	-2569
0+3+	-2570
0233	-2571
0241	-2572
1+34	-2573
12*0	-2574
1441	-2575
3232	-2576
5452	-2577
57+*	-2578
:623	-2579
冠冒冠冒	-2580
%($((	-2581
%(%%%	-2582
%$*+3+	-2583
冠冠冠冠冠冠冠冠冠冠冒冠	-2584
1!	-2585
1:	-2586
2?	-2587
冠写	-2588
#!$	-2589
#32	-2590
$2*	-2591
%#)	-2592
%+!	-2593
&)!	-2594
&)%	-2595
&*#	-2596
*5<	-2597
+&)	-2598
+33	-2599
12)	-2600
1<6	-2601
434	-2602
737	-2603
7>8	-2604
:7+	-2605
<>6	-2606
>33	-2607
#&&%	-2608
#&(*	-2609
#++(	-2610
%%!#	-2611
%%&$	-2612
%((#	-2613
%*22	-2614
&%$%	-2615
&((%	-2616
(+()	-2617
(1+*	-2618
)$%)	-2619
*(*+	-2620
**+1	-2621
*+($	-2622
0+34	-2623
0121	-2624
02((	-2625
02*2	-2626
1234	-2627
12@:	-2628
4674	-2629
57<6	-2630
9@>>	-2631
>568	-2632
>><6	-2633
@2>:	-2634
冠冠冠写	-2635
02&<>	-2636
<64?7	-2637
<@7?>4	-2638
@<87+0	-2639
冒冠冠冠冠冠冠冠冠冠	-2640
$<	-2641
3@	-2642
94	-2643
儡儒	-2644
$#+	-2645
$))	-2646
%%2	-2647
%&0	-2648
%*!	-2649
%*#	-2650
&*)	-2651
&1+	-2652
+31	-2653
04?	-2654
12!	-2655
303	-2656
313	-2657
4>2	-2658
578	-2659
62>	-2660
7>>	-2661
:6+	-2662
:72	-2663
<5<	-2664
<>8	-2665
>64	-2666
@<3	-2667
ABC	-2668
#&*%	-2669
#((#	-2670
#(*+	-2671
$%%%	-2672
$%($	-2673
%&&#	-2674
&&%&	-2675
&+*(	-2676
($%)	-2677
(%*&	-2678
(*21	-2679
(*22	-2680
*&0*	-2681
**1+	-2682
*+#+	-2683
*1+*	-2684
+++2	-2685
0&*(	-2686
01+1	-2687
0254	-2688
12*2	-2689
12++	-2690
3211	-2691
3422	-2692
767>	-2693
7><7	-2694
:@>8	-2695
0224:	-2696
??:@4	-2697
01&46:4	-2698
冠冒冠冠冠冠冠冠	-2699
冠冒冠冠冠冠冠冠冠	-2700
&5	-2701
僳充	-2702
儡優	-2703
冕冒	-2704
冠兽	-2705
&2*	-2706
+1%	-2707
+2&	-2708
10*	-2709
307	-2710
473	-2711
4>0	-2712
4><	-2713
7+6	-2714
747	-2715
:52	-2716
:<6	-2717
冠冠冉	-2718
#$(*	-2719
#%%)	-2720
$+0+	-2721
$3<@	-2722
%++(	-2723
&&(%	-2724
&(%$	-2725
(&%#	-2726
((+%	-2727
(**+	-2728
(+**	-2729
)&%#	-2730
*$**	-2731
*+22	-2732
*121	-2733
*243	-2734
+*((	-2735
0*+0	-2736
0+22	-2737
0231	-2738
1424	-2739
3+32	-2740
340*	-2741
35+*	-2742
5743	-2743
%%%(&	-2744
%*%((	-2745
(%%%%	-2746
((0+!	-2747
14427	-2748
<>702	-2749
525400	-2750
*27><<5:	-2751
冠冠冠冠冠冠冠冠冠冠冠冠冠冠冠冒	-2752
(>	-2753
1@	-2754
!$!	-2755
#)#	-2756
$&+	-2757
(*#	-2758
(00	-2759
)+#	-2760
)24	-2761
+%)	-2762
+13	-2763
+>4	-2764
04@	-2765
1*0	-2766
2*%	-2767
61>	-2768
:>8	-2769
<71	-2770
<72	-2771
<73	-2772
>:@	-2773
@88	-2774
#&#%	-2775
#(&#	-2776
#*((	-2777
%$(#	-2778
%$*+	-2779
%%!)	-2780
%%()	-2781
%&17	-2782
%)&%	-2783
%*%#	-2784
%+%%	-2785
&*((	-2786
($(&	-2787
(&#%	-2788
((&&	-2789
(***	-2790
(*+$	-2791
*%%%	-2792
*&*%	-2793
*&00	-2794
*(&#	-2795
*(+%	-2796
**%#	-2797
*+(&	-2798
*+43	-2799
*+5<	-2800
+*&(	-2801
0+(+	-2802
1+11	-2803
122+	-2804
2112	-2805
2352	-2806
3+12	-2807
320+	-2808
521+	-2809
5414	-2810
<67<	-2811
$%%%%	-2812
%%%(%	-2813
%%*((	-2814
14+46	-2815
025+26	-2816
冠冠冠冠冠冠冠冠冒冠	-2817
冠冠冠冠冠冠冠冠冠冠冠冠冒冠	-2818
!3	-2819
$7	-2820
<(	-2821
!#(	-2822
!$(	-2823
##(	-2824
&14	-2825
()&	-2826
)!$	-2827
)$0	-2828
*!#	-2829
*68	-2830
+)&	-2831
1<>	-2832
21$	-2833
21%	-2834
23>	-2835
277	-2836
33&	-2837
36<	-2838
5><	-2839
746	-2840
:6<	-2841
:>7	-2842
:>?	-2843
<1+	-2844
@+6	-2845
@45	-2846
$$%&	-2847
$%#$	-2848
%$()	-2849
%%!%	-2850
%&#$	-2851
%&%$	-2852
($#(	-2853
($%&	-2854
($*%	-2855
(%++	-2856
(%+0	-2857
((02	-2858
)%+*	-2859
*+*)	-2860
*+1%	-2861
*0+(	-2862
+(%(	-2863
+(*(	-2864
+**&	-2865
+*+0	-2866
+0+1	-2867
+374	-2868
0(0(	-2869
0+11	-2870
02+%	-2871
022(	-2872
1+0%	-2873
11+(	-2874
2374	-2875
3252	-2876
332*	-2877
3321	-2878
%%%%&	-2879
%*(((	-2880
((%(%	-2881
(*%*(	-2882
5+422	-2883
冠冠冠冠冠冠冠冠冠冠冠冒冠	-2884
28	-2885
59	-2886
儉充	-2887
儒僧	-2888
!#!	-2889
!*+	-2890
!+%	-2891
!+0	-2892
%0$	-2893
&#)	-2894
(%2	-2895
(*)	-2896
(3+	-2897
)0&	-2898
+&(	-2899
+(2	-2900
+41	-2901
02)	-2902
11*	-2903
1<3	-2904
1<@	-2905
2+4	-2906
200	-2907
21&	-2908
2@:	-2909
302	-2910
5+5	-2911
644	-2912
776	-2913
7@9	-2914
<14	-2915
<53	-2916
>34	-2917
>36	-2918
CBA	-2919
!$%%	-2920
%#$)	-2921
%$)%	-2922
%%(+	-2923
%($&	-2924
&#$%	-2925
&%($	-2926
($%#	-2927
(&(+	-2928
(*2+	-2929
(+35	-2930
(0%*	-2931
)$(#	-2932
)&$#	-2933
)((*	-2934
*$(%	-2935
*$*%	-2936
*%%(	-2937
*(#(	-2938
*(%)	-2939
**$*	-2940
**&)	-2941
****	-2942
+*$*	-2943
0(0+	-2944
0023	-2945
0201	-2946
0223	-2947
0452	-2948
132+	-2949
1443	-2950
2+0+	-2951
2012	-2952
32**	-2953
3214	-2954
5433	-2955
5454	-2956
75>8	-2957
9?>>	-2958
>452	-2959
>6<6	-2960
?<@4	-2961
@452	-2962
(($(%	-2963
((&%%	-2964
((&((	-2965
*+*((	-2966
*2374	-2967
02%<>	-2968
冠冠冠冠写	-2969
?<64@:>	-2970
冒冠冠冠冠冠冠冠冠冠冠	-2971
1?	-2972
80	-2973
儉優	-2974
優像	-2975
#42	-2976
$!#	-2977
$24	-2978
&$!	-2979
(!*	-2980
*43	-2981
*47	-2982
+$#	-2983
+(!	-2984
+2)	-2985
+52	-2986
+57	-2987
1*3	-2988
12<	-2989
45<	-2990
513	-2991
558	-2992
67>	-2993
714	-2994
7>:	-2995
9@?	-2996
>5@	-2997
@<6	-2998
充充優	-2999
#$#$	-3000
#$*%	-3001
#($#	-3002
#($%	-3003
$(%&	-3004
$+*(	-3005
%$&%	-3006
%&()	-3007
%*%0	-3008
&%&&	-3009
($#%	-3010
(%*+	-3011
(($$	-3012
((%0	-3013
((*2	-3014
((+1	-3015
(*+%	-3016
(*+&	-3017
)(%%	-3018
*%%#	-3019
*0%(	-3020
+*$%	-3021
0420	-3022
10+*	-3023
10+0	-3024
1320	-3025
3230	-3026
3421	-3027
3441	-3028
5577	-3029
571<	-3030
<6<>	-3031
%&%%&	-3032
(((*(	-3033
((0+(	-3034
(*+*(	-3035
(++0+	-3036
(+13+	-3037
*+1+$	-3038
*+3++	-3039
021*%	-3040
((13+25	-3041
#7	-3042
*>	-3043
:2	-3044
?0	-3045
儀像	-3046
儡像	-3047
#+3	-3048
$42	-3049
%46	-3050
&$+	-3051
&(0	-3052
&24	-3053
*0*	-3054
*41	-3055
+$$	-3056
17?	-3057
2?9	-3058
31$	-3059
333	-3060
3@4	-3061
46<	-3062
723	-3063
>47	-3064
>48	-3065
充儒優	-3066
#$#%	-3067
#$#&	-3068
$(*%	-3069
%$&&	-3070
%%&!	-3071
%%0+	-3072
%*&#	-3073
%**+	-3074
%*+%	-3075
%+%(	-3076
&$%&	-3077
&(%&	-3078
&*++	-3079
(#%%	-3080
(#((	-3081
(%)%	-3082
(%*$	-3083
(&#&	-3084
(($*	-3085
((&$	-3086
((+$	-3087
(+(#	-3088
)&**	-3089
*%00	-3090
*(&(	-3091
**++	-3092
*210	-3093
+%++	-3094
+**+	-3095
+0++	-3096
+00+	-3097
00%(	-3098
00&(	-3099
11+0	-3100
122%	-3101
1322	-3102
1453	-3103
2372	-3104
3320	-3105
3345	-3106
76>:	-3107
>4>>	-3108
@:@8	-3109
%%%%$	-3110
%($%%	-3111
%(((%	-3112
(%*((	-3113
(*&*(	-3114
*++*+	-3115
*+57<	-3116
0+42%$	-3117
<>2?<@	-3118
(+13+25	-3119
247007<	-3120
@+	-3121
僳優	-3122
元充	-3123
#0&	-3124
$##	-3125
$&*	-3126
$)+	-3127
&10	-3128
**1	-3129
0%4	-3130
011	-3131
02>	-3132
1*)	-3133
1<2	-3134
2**	-3135
274	-3136
3<8	-3137
46+	-3138
5<8	-3139
5?4	-3140
77+	-3141
77?	-3142
7<6	-3143
7?9	-3144
864	-3145
:64	-3146
<23	-3147
<7>	-3148
?37	-3149
#!%%	-3150
#+(*	-3151
$#%$	-3152
$%$%	-3153
%$)$	-3154
%%)%	-3155
%%++	-3156
%*&%	-3157
%*(%	-3158
&$&&	-3159
(%%*	-3160
(*($	-3161
(*(%	-3162
(253	-3163
*(*2	-3164
*++2	-3165
*+2+	-3166
+0+*	-3167
+11+	-3168
+21+	-3169
00+1	-3170
0213	-3171
022%	-3172
1240	-3173
34+*	-3174
3454	-3175
4774	-3176
5212	-3177
6:>?	-3178
7>24	-3179
8:6+	-3180
%((*(	-3181
%*((%	-3182
(%(($	-3183
*+*0+	-3184
*+32!	-3185
*+334	-3186
022*$	-3187
02248:	-3188
冠冠冠冠冠冕	-3189
(%14+46	-3190
<75+044	-3191
冒冠冠冠冠冠冠冠冠冠冠冠	-3192
冠冠冠冠冠冠冠冠冠冠冠冠冠冒冠	-3193
4(	-3194
5@	-3195
充兆	-3196
!22	-3197
#!*	-3198
%$0	-3199
%31	-3200
))%	-3201
)**	-3202
)21	-3203
*74	-3204
072	-3205
1%1	-3206
1(0	-3207
14&	-3208
2*!	-3209
20*	-3210
30+	-3211
32<	-3212
441	-3213
462	-3214
47>	-3215
4>:	-3216
507	-3217
52(	-3218
5<+	-3219
68:	-3220
6><	-3221
740	-3222
8><	-3223
<4*	-3224
<43	-3225
>+6	-3226
>76	-3227
@71	-3228
ACB	-3229
#(+(	-3230
#++%	-3231
$(((	-3232
$*%(	-3233
$<><	-3234
%%%!	-3235
%&$)	-3236
%+(*	-3237
&%$#	-3238
&%*(	-3239
&&&#	-3240
($%$	-3241
(%$$	-3242
(&*$	-3243
(&+(	-3244
(($&	-3245
(*+1	-3246
(+10	-3247
(+2(	-3248
(+22	-3249
)$#%	-3250
)$#&	-3251
)$&#	-3252
)$**	-3253
)($(	-3254
*&%(	-3255
*&()	-3256
**$%	-3257
*+#(	-3258
*0%0	-3259
*2+(	-3260
+*%0	-3261
++%(	-3262
+01+	-3263
0%0(	-3264
0%0*	-3265
02+#	-3266
0227	-3267
0243	-3268
1+0&	-3269
1+14	-3270
10(*	-3271
13++	-3272
13+2	-3273
3341	-3274
3432	-3275
<@8>	-3276
@9?>	-3277
@>:6	-3278
$((%(	-3279
%(%*(	-3280
%*%*(	-3281
((%*(	-3282
(+00+	-3283
*(*%*	-3284
**0(&	-3285
*+354	-3286
+0410	-3287
0221+	-3288
<87*2	-3289
?8>7?4	-3290
77+0441%	-3291
@5	-3292
像優	-3293
兆充	-3294
#)$	-3295
#24	-3296
$*)	-3297
&!%	-3298
(1(	-3299
*03	-3300
*1&	-3301
*>8	-3302
211	-3303
22)	-3304
3+&	-3305
37+	-3306
412	-3307
42+	-3308
420	-3309
640	-3310
66>	-3311
704	-3312
777	-3313
8:<	-3314
9?>	-3315
:@?	-3316
<5(	-3317
>68	-3318
@46	-3319
#$&)	-3320
#%(#	-3321
#%(*	-3322
#*+*	-3323
#+*(	-3324
$#%%	-3325
%&)&	-3326
%*24	-3327
%+($	-3328
%++%	-3329
&%$)	-3330
&3<>	-3331
(%#(	-3332
(%+%	-3333
(&0+	-3334
((+2	-3335
(+&(	-3336
)!%%	-3337
)(&#	-3338
**20	-3339
*0&(	-3340
*200	-3341
0+2(	-3342
02>:	-3343
1(*(	-3344
1+(%	-3345
123*	-3346
3123	-3347
3254	-3348
4552	-3349
503?	-3350
521*	-3351
5434	-3352
6+02	-3353
765>	-3354
7>23	-3355
<437	-3356
>6<>	-3357
%%&(%	-3358
%((%%	-3359
(((%%	-3360
((0+%	-3361
0+0*+	-3362
#%%*+0	-3363
$5	-3364
4#	-3365
4%	-3366
7%	-3367
93	-3368
?$	-3369
允優	-3370
#0%	-3371
$46	-3372
%34	-3373
%44	-3374
&#+	-3375
(25	-3376
)#!	-3377
)()	-3378
*!*	-3379
*1%	-3380
+%&	-3381
+2<	-3382
0(&	-3383
00!	-3384
104	-3385
13>	-3386
310	-3387
32)	-3388
42$	-3389
43%	-3390
627	-3391
72+	-3392
74+	-3393
76:	-3394
7?4	-3395
<6+	-3396
<<>	-3397
<<@	-3398
#&$#	-3399
$$(%	-3400
$3<>	-3401
%!*(	-3402
%%#(	-3403
%&$%	-3404
%*$#	-3405
&%(&	-3406
($(*	-3407
(&&%	-3408
((12	-3409
(0+(	-3410
)$#$	-3411
)$&%	-3412
)%&#	-3413
)&(#	-3414
)(&%	-3415
)*+0	-3416
*%()	-3417
*%+*	-3418
*&%%	-3419
*&0(	-3420
*+(0	-3421
*222	-3422
+*$(	-3423
+0%*	-3424
+232	-3425
0+&?	-3426
0+0$	-3427
0123	-3428
020(	-3429
0234	-3430
1020	-3431
1120	-3432
12((	-3433
231*	-3434
32+*	-3435
3231	-3436
342*	-3437
3452	-3438
36<@	-3439
5341	-3440
<>84	-3441
@972	-3442
BCBC	-3443
%((%(	-3444
*(*%(	-3445
*(*((	-3446
*(12$	-3447
*+0+0	-3448
0+0%*	-3449
<67432	-3450
52*41(4	-3451
<75+0410	-3452
2:	-3453
!)(	-3454
!+2	-3455
$!%	-3456
$!&	-3457
%10	-3458
&!&	-3459
&01	-3460
&32	-3461
()%	-3462
)44	-3463
*%2	-3464
*)$	-3465
+$(	-3466
+$)	-3467
++!	-3468
++3	-3469
0$1	-3470
0($	-3471
0*#	-3472
0*4	-3473
05+	-3474
1%0	-3475
1*(	-3476
173	-3477
23(	-3478
335	-3479
358	-3480
5**	-3481
512	-3482
53>	-3483
624	-3484
6?<	-3485
74>	-3486
75+	-3487
7<4	-3488
7<7	-3489
7<?	-3490
7@<	-3491
822	-3492
<74	-3493
>7<	-3494
>>?	-3495
充優僳	-3496
#&#$	-3497
#&&&	-3498
#&($	-3499
#++#	-3500
$(%(	-3501
$(*&	-3502
$**$	-3503
%$&)	-3504
%&$&	-3505
%32)	-3506
&$((	-3507
&&&)	-3508
($*$	-3509
(%#&	-3510
(%12	-3511
(%37	-3512
(+&%	-3513
(++)	-3514
(0(*	-3515
)$%$	-3516
)$&)	-3517
)&(*	-3518
*%%)	-3519
*(+#	-3520
*(0%	-3521
**+%	-3522
*+0&	-3523
*240	-3524
+++0	-3525
+212	-3526
0++)	-3527
0++2	-3528
02(*	-3529
020%	-3530
0204	-3531
021(	-3532
03+0	-3533
1+++	-3534
11%*	-3535
1323	-3536
2122	-3537
341+	-3538
3414	-3539
372*	-3540
3721	-3541
4646	-3542
5210	-3543
5411	-3544
6>+3	-3545
86+5	-3546
<643	-3547
<><7	-3548
>67>	-3549
@:@?	-3550
%%$(%	-3551
%%(%%	-3552
%&(($	-3553
(%&(%	-3554
(((*+	-3555
*++0+	-3556
*+00+	-3557
*+132	-3558
*+5<4	-3559
12132	-3560
6431(	-3561
冠冒冠冒冠	-3562
+*1211	-3563
7>>:>2	-3564
<@2@8:	-3565
572*241	-3566
%<	-3567
08	-3568
写写	-3569
!*%	-3570
#))	-3571
$)#	-3572
$01	-3573
&)(	-3574
(#+	-3575
)(0	-3576
))&	-3577
*&!	-3578
*13	-3579
*2!	-3580
*26	-3581
*54	-3582
+1$	-3583
204	-3584
257	-3585
373	-3586
3<1	-3587
514	-3588
57+	-3589
58@	-3590
717	-3591
721	-3592
7>@	-3593
86+	-3594
:5+	-3595
:69	-3596
<22	-3597
<7:	-3598
#$($	-3599
#&&)	-3600
#&()	-3601
#($)	-3602
#+0+	-3603
$#(&	-3604
$$%(	-3605
%#%$	-3606
%&#(	-3607
%&)%	-3608
%($*	-3609
%(+1	-3610
%+*+	-3611
(%0*	-3612
(()(	-3613
(+*%	-3614
)$(*	-3615
)%(%	-3616
)&&#	-3617
)&*%	-3618
*($(	-3619
*(&)	-3620
**$)	-3621
*+%+	-3622
*+&#	-3623
*+14	-3624
+(++	-3625
+*%+	-3626
+*+%	-3627
++(+	-3628
+++*	-3629
+0&*	-3630
+0*$	-3631
0(1+	-3632
0+31	-3633
0+54	-3634
0120	-3635
0122	-3636
02+)	-3637
042*	-3638
11+3	-3639
12*+	-3640
12+#	-3641
12+%	-3642
1433	-3643
2334	-3644
2532	-3645
32*0	-3646
320(	-3647
33++	-3648
6452	-3649
66>>	-3650
75>?	-3651
<774	-3652
>:@8	-3653
%%(($	-3654
(%%($	-3655
(&*((	-3656
(($((	-3657
*+10+	-3658
84674	-3659
:70+3	-3660
<@2@8	-3661
<>?<?4	-3662
*+32$<@	-3663
4)	-3664
5$	-3665
>&	-3666
僳僧	-3667
儀儉	-3668
優僧	-3669
儿儀	-3670
关冠	-3671
冠冉	-3672
$!)	-3673
$14	-3674
&&+	-3675
&11	-3676
+)+	-3677
0$)	-3678
31<	-3679
40+	-3680
421	-3681
443	-3682
4@<	-3683
50*	-3684
54(	-3685
57?	-3686
6:?	-3687
6<<	-3688
6@:	-3689
8<6	-3690
<12	-3691
<<5	-3692
>?9	-3693
?46	-3694
兆僳儉	-3695
#$##	-3696
#($(	-3697
#(%#	-3698
#(%*	-3699
$&(%	-3700
$(*$	-3701
%#$#	-3702
%#%#	-3703
%$#(	-3704
%$(+	-3705
%%%+	-3706
%%*+	-3707
%&)$	-3708
%&+*	-3709
%($$	-3710
%(%!	-3711
%(()	-3712
%*$%	-3713
%*%)	-3714
%*(&	-3715
%+0(	-3716
&&%(	-3717
&(((	-3718
&(*&	-3719
($($	-3720
(%0%	-3721
(&#$	-3722
(&%$	-3723
(*(0	-3724
(+($	-3725
(+32	-3726
(0(%	-3727
(0((	-3728
(2+*	-3729
)($#	-3730
*$*+	-3731
*%*%	-3732
*&(#	-3733
**(0	-3734
**+#	-3735
*+%$	-3736
*+0$	-3737
*+1$	-3738
*+57	-3739
*0(*	-3740
*123	-3741
*22+	-3742
*2?9	-3743
+*%$	-3744
++(%	-3745
++20	-3746
+0($	-3747
+0+2	-3748
+02+	-3749
+042	-3750
0%*+	-3751
0(((	-3752
0*(*	-3753
0+%%	-3754
0422	-3755
1+1(	-3756
1+3+	-3757
11+1	-3758
2022	-3759
21+0	-3760
3+02	-3761
4574	-3762
543+	-3763
5432	-3764
54>>	-3765
<>74	-3766
?4@<	-3767
?668	-3768
%&%(&	-3769
%&13<	-3770
((((%	-3771
02432	-3772
1+0((	-3773
122*$	-3774
<>704	-3775
374&04	-3776
5<<<<>	-3777
((13+45	-3778
4420*13	-3779
冒冠冠冠冠冠冠冠冠冠冠冠冠	-3780
7&	-3781
7)	-3782
儀儡	-3783
儿像	-3784
兆僧	-3785
$$*	-3786
$03	-3787
&2(	-3788
(0*	-3789
(2&	-3790
)20	-3791
*&2	-3792
+#%	-3793
0$%	-3794
0$2	-3795
0%+	-3796
0&)	-3797
0*)	-3798
1&1	-3799
24+	-3800
3+$	-3801
311	-3802
331	-3803
377	-3804
41<	-3805
52>	-3806
573	-3807
6<?	-3808
7*4	-3809
7?<	-3810
:53	-3811
<44	-3812
<6>	-3813
<@>	-3814
>23	-3815
>27	-3816
>37	-3817
@8@	-3818
#$&&	-3819
#%()	-3820
#+(%	-3821
$#$(	-3822
$(#$	-3823
$)%$	-3824
$**+	-3825
$*++	-3826
%&37	-3827
%(%+	-3828
%*+(	-3829
%*2+	-3830
&$#&	-3831
&%#$	-3832
&%&$	-3833
&&&%	-3834
&**+	-3835
(%*#	-3836
((%+	-3837
()%(	-3838
(*%&	-3839
(++$	-3840
(0+&	-3841
(0++	-3842
(022	-3843
)%%)	-3844
)%*(	-3845
)&$)	-3846
)+45	-3847
*$*$	-3848
*%+%	-3849
*&($	-3850
*()(	-3851
*(0*	-3852
**&0	-3853
+%((	-3854
+*+2	-3855
++02	-3856
++21	-3857
+0((	-3858
0(**	-3859
0+#(	-3860
0+2+	-3861
00%#	-3862
0412	-3863
0442	-3864
0443	-3865
1*00	-3866
1123	-3867
12+9	-3868
1214	-3869
1233	-3870
20+0	-3871
3264	-3872
34+1	-3873
3433	-3874
55+*	-3875
558@	-3876
57+0	-3877
5<76	-3878
5><5	-3879
76:7	-3880
8144	-3881
<64>	-3882
<6<4	-3883
<6<6	-3884
$%%%(	-3885
$((&%	-3886
%$%%$	-3887
%%$((	-3888
%&(%%	-3889
%*(%%	-3890
(%%((	-3891
((0+$	-3892
(++*+	-3893
*&042	-3894
0+1+*	-3895
02+*+	-3896
@<5<4	-3897
1424>:	-3898
557711	-3899
*27><<6:	-3900
57+0441(	-3901
>*?<64@:>	-3902
#<	-3903
6@	-3904
儉儿	-3905
儡儀	-3906
冕冕	-3907
#)%	-3908
$10	-3909
%##	-3910
%2(	-3911
*+7	-3912
*2>	-3913
*4<	-3914
+)$	-3915
+0!	-3916
+4>	-3917
+77	-3918
0%)	-3919
010	-3920
07<	-3921
1*#	-3922
15+	-3923
22#	-3924
22&	-3925
31%	-3926
34$	-3927
35<	-3928
471	-3929
511	-3930
537	-3931
564	-3932
5>:	-3933
874	-3934
<3%	-3935
>24	-3936
>41	-3937
>7?	-3938
>84	-3939
><4	-3940
!(*+	-3941
#!(%	-3942
##%(	-3943
#&02	-3944
#(()	-3945
#+((	-3946
$%*+	-3947
$*%%	-3948
$*+2	-3949
$+0(	-3950
%%#$	-3951
%)%(	-3952
%)(*	-3953
%*(*	-3954
%+**	-3955
&%%(	-3956
&*%*	-3957
&+*+	-3958
(#(*	-3959
($)%	-3960
(%#$	-3961
(%0(	-3962
(&0*	-3963
((!%	-3964
(*%)	-3965
(+%#	-3966
(+01	-3967
(+02	-3968
(+2+	-3969
)$()	-3970
)$*%	-3971
)&()	-3972
)&+*	-3973
*&*#	-3974
*($#	-3975
*+&%	-3976
*+&)	-3977
*++$	-3978
*++&	-3979
*202	-3980
+(*+	-3981
+(+*	-3982
+*+*	-3983
+0(%	-3984
0&*+	-3985
0&0+	-3986
0+14	-3987
00(0	-3988
00+(	-3989
02*3	-3990
1+44	-3991
11&:	-3992
112*	-3993
1121	-3994
1213	-3995
1343	-3996
13<:	-3997
1412	-3998
1440	-3999
2+*+	-4000
87*2	-4001
<732	-4002
>862	-4003
@>:>	-4004
%%%%%	-4005
%%%($	-4006
%(%%$	-4007
%*%%%	-4008
((+*(	-4009
((+0+	-4010
((0($	-4011
)%%%%	-4012
*(%((	-4013
*+0+*	-4014
022<9	-4015
1200+	-4016
3532(	-4017
54032	-4018
>4544	-4019
>:4#1	-4020
((0202	-4021
((1212	-4022
*+32!<@	-4023
@<87+01210	-4024
冠冒冠冠冠冠冠冠冠冠冠冠冠冠	-4025
?*	-4026
僳儿	-4027
優儉	-4028
充像	-4029
!##	-4030
!%!	-4031
#+4	-4032
#00	-4033
#1+	-4034
#34	-4035
$(0	-4036
$0&	-4037
$<>	-4038
%))	-4039
%1*	-4040
&+!	-4041
(#)	-4042
(&2	-4043
*10	-4044
*17	-4045
*45	-4046
+$&	-4047
+$*	-4048
+3<	-4049
01*	-4050
030	-4051
1(2	-4052
1+7	-4053
14%	-4054
213	-4055
315	-4056
32>	-4057
42%	-4058
424	-4059
464	-4060
672	-4061
678	-4062
67:	-4063
6<1	-4064
7:?	-4065
:8>	-4066
<24	-4067
<68	-4068
>54	-4069
?84	-4070
?:<	-4071
@74	-4072
充優優	-4073
#$#(	-4074
#%)%	-4075
#&(&	-4076
#&+*	-4077
#(&)	-4078
#*%*	-4079
$%++	-4080
$&%$	-4081
$*+0	-4082
$*0+	-4083
$+*+	-4084
%&*$	-4085
%(!)	-4086
%(#(	-4087
%)$%	-4088
%0+*	-4089
&#%$	-4090
&$%$	-4091
&*%(	-4092
&**$	-4093
&*0+	-4094
&+0(	-4095
(%(&	-4096
(%(+	-4097
(&#(	-4098
(&+*	-4099
((!#	-4100
((#(	-4101
(++&	-4102
(+11	-4103
(232	-4104
)%$(	-4105
)%+(	-4106
)&%&	-4107
*$($	-4108
*&*&	-4109
*($)	-4110
*0$(	-4111
*223	-4112
*237	-4113
+*+1	-4114
++**	-4115
+0+&	-4116
+032	-4117
+134	-4118
+20+	-4119
+332	-4120
0$*(	-4121
0%0+	-4122
0*3+	-4123
0+(#	-4124
0+21	-4125
00&*	-4126
00(%	-4127
042+	-4128
10((	-4129
1202	-4130
33+2	-4131
3464	-4132
37<6	-4133
4332	-4134
5+1+	-4135
5231	-4136
5620	-4137
5721	-4138
5<73	-4139
<6<3	-4140
@454	-4141
%%$%&	-4142
%(%($	-4143
%((((	-4144
((&*(	-4145
((*%*	-4146
0+0*$	-4147
02132	-4148
0214:	-4149
022(+	-4150
13*75	-4151
54@>:	-4152
6+510	-4153
@2@::	-4154
@9326	-4155
冕冠冠冠冠	-4156
##%*+0	-4157
7><<5:	-4158
86<630	-4159
:7+64@	-4160
<62@:>	-4161
*+31$<@	-4162
025223>	-4163
((12(7>9	-4164
52*41(477+0441%	-4165
)3	-4166
5%	-4167
8+	-4168
?(	-4169
儡僧	-4170
#+!	-4171
#2$	-4172
$0%	-4173
$11	-4174
$34	-4175
%+3	-4176
())	-4177
(01	-4178
)+)	-4179
*2#	-4180
*72	-4181
+%2	-4182
+&$	-4183
+(0	-4184
+*1	-4185
+03	-4186
+1&	-4187
+3*	-4188
+3>	-4189
0(!	-4190
1*$	-4191
1*2	-4192
11>	-4193
131	-4194
1<8	-4195
2+3	-4196
27>	-4197
2<6	-4198
3*3	-4199
41%	-4200
475	-4201
5+6	-4202
52%	-4203
5<1	-4204
617	-4205
67?	-4206
67@	-4207
713	-4208
771	-4209
:@8	-4210
:@9	-4211
<9?	-4212
>>2	-4213
>>:	-4214
>@8	-4215
?@:	-4216
@16	-4217
BAC	-4218
兽冠冠	-4219
冠冕冠	-4220
#%%&	-4221
#%+(	-4222
#&&#	-4223
#&)&	-4224
#(**	-4225
#(0+	-4226
#*+1	-4227
#+++	-4228
#++0	-4229
$#++	-4230
$$#&	-4231
$132	-4232
%#&#	-4233
%#&(	-4234
%$#!	-4235
%&$#	-4236
&$%(	-4237
&%&#	-4238
&&%$	-4239
&*%%	-4240
&3<@	-4241
(!((	-4242
($#&	-4243
((#%	-4244
((+&	-4245
(*%$	-4246
(+(0	-4247
(+0%	-4248
(+1+	-4249
(+12	-4250
)$)&	-4251
*$%(	-4252
*$0*	-4253
*%+0	-4254
*(#%	-4255
*((0	-4256
*(21	-4257
**2*	-4258
*0&#	-4259
*0+#	-4260
*0+%	-4261
*211	-4262
*27>	-4263
+*&%	-4264
+*($	-4265
+*20	-4266
++%%	-4267
+0*+	-4268
0(*+	-4269
0*1+	-4270
0+#+	-4271
0+($	-4272
00%0	-4273
02*+	-4274
023<	-4275
041+	-4276
1*((	-4277
1*43	-4278
1+31	-4279
1021	-4280
14+#	-4281
21+1	-4282
210+	-4283
233+	-4284
24::	-4285
32*(	-4286
322*	-4287
3442	-4288
3720	-4289
3723	-4290
4023	-4291
5230	-4292
53+*	-4293
5412	-4294
565>	-4295
6434	-4296
:326	-4297
<>04	-4298
>+6:	-4299
@:>?	-4300
$((%%	-4301
%%(%&	-4302
%%14<	-4303
%(+*(	-4304
($*((	-4305
(%1+$	-4306
(*&(%	-4307
*+**+	-4308
*+1+%	-4309
*2332	-4310
+*++(	-4311
++57>	-4312
0+*%(	-4313
0+*((	-4314
0430(	-4315
11&46	-4316
124+*	-4317
@97+6	-4318
04>><6	-4319
8+254@	-4320
冠冠冠冠冠冠冕	-4321
<@7?>43241	-4322
冠冒冠冠冠冠冠冠冠冠冠	-4323
冠冒冠冠冠冠冠冠冠冠冠冠冠冠冠冠	-4324
:1	-4325
僧儀	-4326
儉儀	-4327
冉冉	-4328
!+&	-4329
!0*	-4330
!0+	-4331
#!!	-4332
#02	-4333
$44	-4334
%*1	-4335
%4+	-4336
(54	-4337
)##	-4338
*!(	-4339
*!)	-4340
*#%	-4341
**)	-4342
*0!	-4343
*1$	-4344
*4+	-4345
+%!	-4346
+6<	-4347
0$3	-4348
0&2	-4349
1%3	-4350
130	-4351
2((	-4352
251	-4353
3*0	-4354
3+2	-4355
41&	-4356
43#	-4357
445	-4358
51%	-4359
56:	-4360
621	-4361
75<	-4362
75>	-4363
763	-4364
775	-4365
7<3	-4366
8@:	-4367
:57	-4368
<33	-4369
<4<	-4370
<60	-4371
>+>	-4372
>05	-4373
>3>	-4374
>52	-4375
>@:	-4376
冠养冠	-4377
#!((	-4378
##(*	-4379
#$#)	-4380
#(%)	-4381
#*&*	-4382
#++)	-4383
$#$)	-4384
$$&&	-4385
$%#&	-4386
$(++	-4387
$00+	-4388
%(!%	-4389
&*+*	-4390
&00+	-4391
&01+	-4392
(#&(	-4393
($*&	-4394
(%%+	-4395
(&&&	-4396
(*&0	-4397
(+(&	-4398
)#$)	-4399
)$&&	-4400
)+35	-4401
*%#$	-4402
*%#&	-4403
*&+*	-4404
*(%&	-4405
*(32	-4406
**23	-4407
*+2%	-4408
*1+1	-4409
*20*	-4410
*<3+	-4411
+#++	-4412
+#+0	-4413
+(22	-4414
+0+%	-4415
+10+	-4416
+144	-4417
+202	-4418
0&((	-4419
0&0*	-4420
0*20	-4421
0+0#	-4422
0020	-4423
003+	-4424
01&*	-4425
01+(	-4426
02*$	-4427
02*5	-4428
0230	-4429
05>:	-4430
1%0+	-4431
1+*0	-4432
12&8	-4433
122(	-4434
141+	-4435
2*41	-4436
20+1	-4437
2232	-4438
3+*+	-4439
352*	-4440
4122	-4441
5+54	-4442
5430	-4443
6414	-4444
6<?6	-4445
86+3	-4446
98>>	-4447
<574	-4448
>4@<	-4449
>?:7	-4450
%$%(&	-4451
%%(%(	-4452
%%(*+	-4453
%&%((	-4454
%*%(%	-4455
%*&((	-4456
&(%%%	-4457
(%*0+	-4458
*+0%(	-4459
*+12$	-4460
*+332	-4461
*+352	-4462
*2+*+	-4463
0+0((	-4464
0+10+	-4465
0201+	-4466
02374	-4467
042+(	-4468
1211+	-4469
2%3<@	-4470
2+5<@	-4471
54%42	-4472
<@26<	-4473
<@4?8	-4474
(%((%(	-4475
(%*%((	-4476
**34<<	-4477
*+1+!?	-4478
1224::	-4479
?:5441	-4480
?<64@8	-4481
冕冠冠冠冠冠	-4482
77+0441	-4483
<54?464	-4484
04>><6?<@	-4485
86(320340*	-4486
冠冠冠冠冠冠冠冠冠冠冠冠冠冠冒冠	-4487
&<	-4488
+?	-4489
39	-4490
6*	-4491
儀兆	-4492
兽写	-4493
兽冠	-4494
!#)	-4495
!%*	-4496
$$2	-4497
$0$	-4498
%43	-4499
&$*	-4500
&&*	-4501
&44	-4502
(%1	-4503
(*4	-4504
(2$	-4505
*#*	-4506
*$&	-4507
**4	-4508
*1(	-4509
*2<	-4510
*4?	-4511
+#(	-4512
+&%	-4513
+&+	-4514
+0)	-4515
0%3	-4516
02!	-4517
1&*	-4518
1(%	-4519
2+1	-4520
451	-4521
4@2	-4522
5+(	-4523
5+7	-4524
510	-4525
56<	-4526
654	-4527
66@	-4528
68@	-4529
722	-4530
:54	-4531
:6:	-4532
<2?	-4533
>8:	-4534
?4>	-4535
@4>	-4536
@<7	-4537
優儒儡	-4538
冠冠养	-4539
!%%$	-4540
!(($	-4541
#$)$	-4542
#$*$	-4543
#%#(	-4544
#%+0	-4545
#&*#	-4546
#&*&	-4547
#+%*	-4548
#+*+	-4549
$$%$	-4550
$%$(	-4551
$%%!	-4552
$%&%	-4553
$%)$	-4554
%!(%	-4555
%#$(	-4556
%$#)	-4557
%$$%	-4558
%%#&	-4559
%%$!	-4560
%%(0	-4561
%%*$	-4562
%%02	-4563
%%17	-4564
%*$)	-4565
%+%#	-4566
&&#$	-4567
&&#&	-4568
&*(&	-4569
&**&	-4570
(#$#	-4571
(&00	-4572
((&+	-4573
((1+	-4574
()((	-4575
(+&#	-4576
(++1	-4577
(11+	-4578
)!%)	-4579
)%&(	-4580
)($%	-4581
)(+0	-4582
)+**	-4583
*$%%	-4584
*$*#	-4585
**%+	-4586
*+*1	-4587
*+13	-4588
*0&0	-4589
*023	-4590
*1>:	-4591
*231	-4592
+#+*	-4593
+++(	-4594
++14	-4595
+0$*	-4596
+122	-4597
+2*2	-4598
+22+	-4599
0(00	-4600
00%%	-4601
0277	-4602
1+(+	-4603
1+54	-4604
12+7	-4605
20++	-4606
22*+	-4607
3+10	-4608
3443	-4609
347<	-4610
42)2	-4611
5+12	-4612
5234	-4613
53+0	-4614
5717	-4615
57<3	-4616
5<1<	-4617
7>44	-4618
<>:4	-4619
<@4@	-4620
>311	-4621
>>6?	-4622
$((((	-4623
%%((%	-4624
%%(*(	-4625
%&(%(	-4626
&(%((	-4627
((&%$	-4628
(*%(%	-4629
(*++(	-4630
(0+0*	-4631
*++*(	-4632
*+0%*	-4633
*+102	-4634
*+3+(	-4635
+0++*	-4636
0+11+	-4637
1121+	-4638
132++	-4639
1420+	-4640
2%5<@	-4641
4>4?3	-4642
6453+	-4643
<@:??	-4644
>:4)1	-4645
((((((	-4646
*+00+*	-4647
022<99	-4648
>66>16	-4649
??:@<@	-4650
%&02%<>	-4651
342*+0(	-4652
520121*	-4653
冠冠冠冠冠冠冠写	-4654
儀僧	-4655
優價	-4656
充儿	-4657
冕养	-4658
!(!	-4659
#+)	-4660
#0(	-4661
#14	-4662
$(2	-4663
$+4	-4664
%(1	-4665
%1(	-4666
%11	-4667
&37	-4668
&5<	-4669
(4<	-4670
)!!	-4671
)12	-4672
**3	-4673
*31	-4674
+#2	-4675
+$%	-4676
+%0	-4677
+&&	-4678
+45	-4679
073	-4680
1*%	-4681
133	-4682
158	-4683
2*)	-4684
317	-4685
4*2	-4686
43>	-4687
472	-4688
4@4	-4689
54*	-4690
6*3	-4691
634	-4692
64<	-4693
68<	-4694
6<2	-4695
6>4	-4696
720	-4697
727	-4698
733	-4699
76?	-4700
8>2	-4701
9>4	-4702
<57	-4703
<>:	-4704
>15	-4705
>28	-4706
?@4	-4707
@?>	-4708
#$&#	-4709
#$*+	-4710
#$02	-4711
#%!#	-4712
#%*%	-4713
#&$&	-4714
#&+(	-4715
#(*(	-4716
#+20	-4717
$#$%	-4718
$#($	-4719
$$$&	-4720
$%&$	-4721
$(0+	-4722
$*(&	-4723
$**&	-4724
%!%&	-4725
%$$$	-4726
%%!&	-4727
%%)&	-4728
%&3<	-4729
%(12	-4730
%(13	-4731
%*+1	-4732
%0((	-4733
%0(*	-4734
%00+	-4735
%01+	-4736
&#$#	-4737
&%!%	-4738
&&&$	-4739
&(#$	-4740
&(*%	-4741
(&*&	-4742
(()$	-4743
()%%	-4744
()(*	-4745
(*(&	-4746
(*23	-4747
(*24	-4748
(+#+	-4749
(0&*	-4750
(2+0	-4751
)$($	-4752
)&%)	-4753
)+((	-4754
*$%&	-4755
*%0%	-4756
*%1+	-4757
*&(+	-4758
*(%+	-4759
*(12	-4760
*(20	-4761
**0(	-4762
*+#*	-4763
*+?9	-4764
*0&)	-4765
*257	-4766
+*&0	-4767
+*23	-4768
+021	-4769
+1*2	-4770
+121	-4771
+1<4	-4772
+2+*	-4773
00&0	-4774
02(7	-4775
02+1	-4776
02+>	-4777
0440	-4778
1+0#	-4779
1203	-4780
132*	-4781
14+(	-4782
142+	-4783
145+	-4784
14@?	-4785
1520	-4786
2+02	-4787
253+	-4788
33+(	-4789
3444	-4790
3><5	-4791
43+*	-4792
431+	-4793
5+34	-4794
5211	-4795
54+%	-4796
5727	-4797
6431	-4798
7721	-4799
7>+4	-4800
8454	-4801
8557	-4802
8773	-4803
<532	-4804
<5>?	-4805
<646	-4806
>6>>	-4807
>768	-4808
>:?>	-4809
>>7?	-4810
?845	-4811
?8>7	-4812
@4@7	-4813
#%%%%	-4814
#%14<	-4815
$*((*	-4816
%$#%%	-4817
%$%(%	-4818
%$(%%	-4819
%%&%&	-4820
%%((&	-4821
%&(%$	-4822
%&*((	-4823
%($%&	-4824
%*++(	-4825
&&&%%	-4826
&((((	-4827
(%%(%	-4828
(%(*(	-4829
(($%%	-4830
((%*%	-4831
(((*&	-4832
*(0($	-4833
*+*%(	-4834
*+0((	-4835
*+03+	-4836
*+20+	-4837
0*1+*	-4838
0+*0+	-4839
022*+	-4840
12352	-4841
2+358	-4842
3211+	-4843
454>:	-4844
4>0>?	-4845
54674	-4846
7:8@<	-4847
<6<>2	-4848
@<354	-4849
*(3442	-4850
12248:	-4851
374$04	-4852
523400	-4853
5264>7	-4854
85(1+*	-4855
*32#+2*	-4856
6451+12	-4857
:35%32)	-4858
557711*<3+	-4859
77+0441(+*&	-4860
8$	-4861
@1	-4862
CC	-4863
儀儿	-4864
兽冉	-4865
!!)	-4866
#0$	-4867
$1+	-4868
&)+	-4869
&0%	-4870
&0&	-4871
&54	-4872
(&1	-4873
(31	-4874
)))	-4875
)*0	-4876
)02	-4877
*3<	-4878
*40	-4879
*75	-4880
+)%	-4881
029	-4882
0<4	-4883
1*+	-4884
2#+	-4885
304	-4886
33$	-4887
42*	-4888
447	-4889
457	-4890
4<1	-4891
4<4	-4892
4>7	-4893
620	-4894
67<	-4895
6>@	-4896
73<	-4897
769	-4898
8:>	-4899
98>	-4900
:?6	-4901
<20	-4902
<21	-4903
<5%	-4904
<51	-4905
<:?	-4906
<<6	-4907
<>5	-4908
?<6	-4909
??9	-4910
@>@	-4911
CAB	-4912
優充優	-4913
充儒儡	-4914
兆優優	-4915
!%($	-4916
!%(%	-4917
!(%(	-4918
!((&	-4919
##%*	-4920
#$)%	-4921
#$0*	-4922
#$00	-4923
#%#%	-4924
#%&)	-4925
#%*+	-4926
#&$)	-4927
#&*+	-4928
#&0*	-4929
#*(*	-4930
#+**	-4931
$%$)	-4932
$&$$	-4933
$*+*	-4934
$*1+	-4935
%$&#	-4936
%%)(	-4937
%%+%	-4938
%&+(	-4939
%(*0	-4940
%(20	-4941
%*%$	-4942
%*+&	-4943
%+1+	-4944
%0%*	-4945
%0(%	-4946
%3<>	-4947
&$(%	-4948
&*(%	-4949
&+%$	-4950
&21+	-4951
(#$(	-4952
(#%#	-4953
(#+0	-4954
($+(	-4955
(&)%	-4956
(&0(	-4957
((&!	-4958
((+)	-4959
(*+#	-4960
(*1+	-4961
(*20	-4962
(+$#	-4963
(+$(	-4964
(+&*	-4965
(+(+	-4966
(+1*	-4967
(0%(	-4968
(0+$	-4969
(01+	-4970
(023	-4971
)!%(	-4972
)$#(	-4973
)$#)	-4974
)$$#	-4975
)$(&	-4976
)&#%	-4977
)&$%	-4978
)&$&	-4979
)&($	-4980
)&(&	-4981
)($)	-4982
)(%#	-4983
)((%	-4984
*$(+	-4985
*$0+	-4986
*%12	-4987
*&*0	-4988
*&02	-4989
*($*	-4990
*+$)	-4991
*+%&	-4992
*0%#	-4993
*21(	-4994
*22(	-4995
*254	-4996
+%+*	-4997
+($(	-4998
+*(&	-4999
+*2(	-5000
+++#	-5001
+++&	-5002
+0(&	-5003
+268	-5004
+3<4	-5005
0%+(	-5006
0%+*	-5007
0%00	-5008
0&*$	-5009
0(#(	-5010
0((*	-5011
0*01	-5012
0*21	-5013
00*0	-5014
00+)	-5015
00++	-5016
012*	-5017
0321	-5018
0421	-5019
0454	-5020
10**	-5021
1013	-5022
11(0	-5023
12+2	-5024
120#	-5025
121(	-5026
1257	-5027
13+4	-5028
14++	-5029
1473	-5030
2+14	-5031
20+2	-5032
2@<?	-5033
3+*(	-5034
3+1(	-5035
3213	-5036
325<	-5037
3440	-5038
3474	-5039
5+32	-5040
545<	-5041
5464	-5042
6866	-5043
6876	-5044
6<?>	-5045
76<6	-5046
8646	-5047
:>?2	-5048
<45:	-5049
<>14	-5050
>5>8	-5051
>8:7	-5052
@4@9	-5053
@<?7	-5054
冠冠冠冉	-5055
#04@?	-5056
$%%((	-5057
$(%%%	-5058
$(((%	-5059
$**+*	-5060
%%&(&	-5061
%%(%$	-5062
%((($	-5063
%(022	-5064
(%%%&	-5065
(%(*&	-5066
(%00+	-5067
((%%&	-5068
(*(((	-5069
(*+((	-5070
*(0((	-5071
**%*(	-5072
**1+*	-5073
*2+0+	-5074
01+1+	-5075
3230%	-5076
3264>	-5077
4$3<@	-5078
7>6:@	-5079
?4><3	-5080
@2><@	-5081
养冠冠冠冠	-5082
((13+2	-5083
(*34<<	-5084
0224:?	-5085
023+4>	-5086
3+33+*	-5087
36<@<>	-5088
767>62	-5089
<437@:	-5090
<67<52	-5091
@43241	-5092
((13%46	-5093
<@8>@<@	-5094
>>52*41	-5095
冠冠冠冠冠冠写	-5096
*+34$<><	-5097
6><63473	-5098
121*%0++*	-5099
6431(14+*	-5100
冠冒冠冠冠冠冠冠冠冠	-5101
&7	-5102
<%	-5103
>$	-5104
?!	-5105
?+	-5106
兆儒	-5107
冊冠	-5108
!*&	-5109
!+)	-5110
##!	-5111
#(2	-5112
#0*	-5113
#2&	-5114
$#*	-5115
$+1	-5116
%01	-5117
%2%	-5118
%25	-5119
%5<	-5120
(!&	-5121
(#*	-5122
(2%	-5123
)#(	-5124
)1+	-5125
)23	-5126
*!%	-5127
**#	-5128
+$2	-5129
+47	-5130
+<5	-5131
0(3	-5132
048	-5133
07>	-5134
1&0	-5135
117	-5136
12:	-5137
1<5	-5138
1<?	-5139
2$+	-5140
2$2	-5141
2(+	-5142
300	-5143
34&	-5144
3>2	-5145
43<	-5146
453	-5147
4<3	-5148
535	-5149
55+	-5150
65>	-5151
726	-5152
:><	-5153
:?>	-5154
:??	-5155
<04	-5156
<1%	-5157
<4+	-5158
<7<	-5159
<<2	-5160
>+4	-5161
>44	-5162
>5>	-5163
>:<	-5164
?36	-5165
?><	-5166
@6>	-5167
@:6	-5168
@?9	-5169
優儡儒	-5170
充優儒	-5171
!%(&	-5172
!&%%	-5173
#$1<	-5174
#%&(	-5175
#%(&	-5176
#((%	-5177
#+0(	-5178
#+1+	-5179
$%$#	-5180
$%)&	-5181
$%+0	-5182
$((!	-5183
$()$	-5184
$*%*	-5185
$*0&	-5186
$*22	-5187
$+((	-5188
$032	-5189
%#!)	-5190
%$*%	-5191
%%+#	-5192
%&&(	-5193
%&*#	-5194
%&*+	-5195
%((+	-5196
%((0	-5197
%(+&	-5198
%*%&	-5199
%+(&	-5200
%0&*	-5201
%0*+	-5202
%32#	-5203
&#$)	-5204
&#%%	-5205
&$&%	-5206
&%%!	-5207
&&$#	-5208
&(%!	-5209
&(+*	-5210
&(0+	-5211
(!(%	-5212
(!*(	-5213
(#$)	-5214
(%&$	-5215
(%*0	-5216
(%2*	-5217
(&12	-5218
((+#	-5219
(+&)	-5220
(+*$	-5221
)$)%	-5222
)&%$	-5223
*$*)	-5224
*$02	-5225
*%*#	-5226
*&%&	-5227
*&(*	-5228
*&*)	-5229
*&1+	-5230
**%)	-5231
*+$(	-5232
*+&(	-5233
*+(+	-5234
*+30	-5235
*2%*	-5236
*2((	-5237
*2*2	-5238
+%%%	-5239
+%+2	-5240
+*&$	-5241
+*24	-5242
++0*	-5243
++22	-5244
+0(*	-5245
+13+	-5246
+2+(	-5247
0%2*	-5248
0+%&	-5249
0+()	-5250
0+0)	-5251
00+#	-5252
0132	-5253
0152	-5254
0240	-5255
04+)	-5256
04+*	-5257
0464	-5258
1*%(	-5259
1*+*	-5260
1+*2	-5261
1+0$	-5262
10%*	-5263
12%?	-5264
1237	-5265
1243	-5266
14+2	-5267
1431	-5268
1434	-5269
2(2*	-5270
2*+*	-5271
2+*(	-5272
20+*	-5273
3+((	-5274
3+34	-5275
3520	-5276
42%4	-5277
442*	-5278
4520	-5279
520+	-5280
6252	-5281
6721	-5282
6:2(	-5283
7452	-5284
:6+>	-5285
>8>2	-5286
?4@:	-5287
冠冠冕冠	-5288
$%&%%	-5289
$%((%	-5290
$((%#	-5291
%$%%&	-5292
%%%%#	-5293
%%(+(	-5294
%&%%$	-5295
%&&%%	-5296
%&((&	-5297
%(%%(	-5298
%(%*%	-5299
%(((*	-5300
&%$%%	-5301
(%12&	-5302
((((&	-5303
((++(	-5304
(*%*+	-5305
(*+*%	-5306
(*+0(	-5307
(+(*$	-5308
(+374	-5309
)%&%%	-5310
*((($	-5311
*(*%%	-5312
*+(*(	-5313
*++*&	-5314
*+0*+	-5315
*0+0*	-5316
0+032	-5317
0200+	-5318
021+*	-5319
121+*	-5320
1210+	-5321
1221+	-5322
12332	-5323
2&5<@	-5324
3<4*+	-5325
4&3<@	-5326
52*42	-5327
5264>	-5328
<61>4	-5329
?4674	-5330
?6684	-5331
?>7?4	-5332
冠冠冒冠冠	-5333
%(&(%&	-5334
%(0202	-5335
*+5<<<	-5336
0224:8	-5337
32*+43	-5338
7>@<85	-5339
@<87++	-5340
冠冠冠冠冠冉	-5341
(+35+25	-5342
342*++(	-5343
8:6+54012	-5344
86(320140*	-5345
冠冒冠冠冠冠冠冠冠冠冠冠冠	-5346
@2@::6431+14+0	-5347
$?	-5348
%8	-5349
0?	-5350
4!	-5351
?&	-5352
像儿	-5353
僵優	-5354
優允	-5355
兆儿	-5356
!*$	-5357
!+$	-5358
#%2	-5359
#10	-5360
$!(	-5361
$%0	-5362
$*4	-5363
$0#	-5364
$32	-5365
%!*	-5366
%0#	-5367
&##	-5368
&(2	-5369
&0#	-5370
(10	-5371
))!	-5372
))(	-5373
)*1	-5374
)25	-5375
*#&	-5376
*#(	-5377
*+6	-5378
*7<	-5379
*7>	-5380
+46	-5381
+4<	-5382
+64	-5383
0+7	-5384
02@	-5385
03&	-5386
0<2	-5387
2($	-5388
201	-5389
217	-5390
24(	-5391
24<	-5392
330	-5393
34%	-5394
35+	-5395
404	-5396
42#	-5397
42(	-5398
4>>	-5399
5+)	-5400
50+	-5401
52#	-5402
5>9	-5403
642	-5404
6:6	-5405
778	-5406
77:	-5407
837	-5408
8:4	-5409
9?4	-5410
:>2	-5411
<3(	-5412
<3<	-5413
<78	-5414
<<3	-5415
<>0	-5416
>5<	-5417
>:7	-5418
>>8	-5419
>@9	-5420
?7>	-5421
?88	-5422
?>3	-5423
!$((	-5424
!(%%	-5425
!((%	-5426
#!%)	-5427
##$#	-5428
#$&%	-5429
#$+*	-5430
#%%*	-5431
#&#&	-5432
#&$%	-5433
#&00	-5434
#2+*	-5435
$#%&	-5436
$%$$	-5437
$%*%	-5438
$&22	-5439
$(%!	-5440
$()&	-5441
$++*	-5442
%#!#	-5443
%#(%	-5444
%$)&	-5445
%$))	-5446
%&#)	-5447
%&0*	-5448
%(+#	-5449
%(+$	-5450
%(0(	-5451
%(21	-5452
%)$#	-5453
%)%*	-5454
%)&&	-5455
%*21	-5456
%++)	-5457
%++0	-5458
%022	-5459
&#$&	-5460
&#%(	-5461
&#&%	-5462
&%$(	-5463
&%&(	-5464
&%22	-5465
&*($	-5466
&+0+	-5467
&132	-5468
(#$%	-5469
(#%*	-5470
($*0	-5471
(%#)	-5472
(%&*	-5473
(%)$	-5474
(&0%	-5475
(&02	-5476
((!(	-5477
((##	-5478
((20	-5479
((22	-5480
(*&&	-5481
(+#(	-5482
(0+%	-5483
)$0*	-5484
)%&)	-5485
)%**	-5486
)%0+	-5487
)((0	-5488
*#(*	-5489
*$(#	-5490
*&#%	-5491
*&*$	-5492
*(#*	-5493
*(&$	-5494
*(&*	-5495
*()%	-5496
*(0&	-5497
**&$	-5498
**1(	-5499
**12	-5500
*+#2	-5501
*+$#	-5502
*+1&	-5503
*0$#	-5504
*0++	-5505
*120	-5506
*2+#	-5507
*20+	-5508
*242	-5509
*252	-5510
+%*+	-5511
+&((	-5512
+*+$	-5513
+*+&	-5514
+*02	-5515
++#$	-5516
++*%	-5517
++0(	-5518
++2+	-5519
+0+$	-5520
+174	-5521
+2*(	-5522
+220	-5523
0**0	-5524
0+)+	-5525
0++>	-5526
0+1%	-5527
0+44	-5528
01%*	-5529
01++	-5530
02+8	-5531
022#	-5532
0323	-5533
1*11	-5534
1+30	-5535
1+<4	-5536
1032	-5537
11%(	-5538
12%(	-5539
121%	-5540
124*	-5541
124+	-5542
1253	-5543
125<	-5544
13+1	-5545
13<6	-5546
142(	-5547
14@:	-5548
2*+1	-5549
2++*	-5550
212+	-5551
2200	-5552
2354	-5553
3+14	-5554
3+3+	-5555
3+33	-5556
3204	-5557
332+	-5558
3523	-5559
41+*	-5560
441(	-5561
4420	-5562
5725	-5563
576@	-5564
5><7	-5565
7464	-5566
7620	-5567
77+0	-5568
7>43	-5569
8><6	-5570
:704	-5571
<>7<	-5572
<>>4	-5573
<@9>	-5574
<@:@	-5575
>26:	-5576
>?45	-5577
?>@4	-5578
@462	-5579
@<64	-5580
@<86	-5581
#%&%%	-5582
#&*((	-5583
$%%&%	-5584
$*(((	-5585
$*++*	-5586
%%&%(	-5587
%((&%	-5588
%(*%%	-5589
%(*%*	-5590
%++*(	-5591
&*+**	-5592
(%((&	-5593
(%)&%	-5594
(%0+$	-5595
(((($	-5596
((*%(	-5597
(+0+(	-5598
*(**(	-5599
*(0%%	-5600
*+01+	-5601
*+12+	-5602
*+3+2	-5603
*0+*(	-5604
*2354	-5605
*25><	-5606
*42+(	-5607
0+112	-5608
01(7:	-5609
024<:	-5610
1+1+*	-5611
13+46	-5612
45403	-5613
4>+>4	-5614
62510	-5615
<62?7	-5616
>4534	-5617
?<*44	-5618
@4@>2	-5619
((((%%	-5620
03<<5(	-5621
13<::?	-5622
2?9?>>	-5623
3<1242	-5624
>><674	-5625
@73541	-5626
(+13+45	-5627
1<??:@4	-5628
8:6+510	-5629
@735410	-5630
@<62@:>	-5631
*243*(0(	-5632
34+11++(	-5633
374&042+	-5634
冠冠冠冠冠冠冠冕	-5635
6431+14+*	-5636
77+0441((	-5637
<75+0440&	-5638
6>+30+42%$	-5639
冠冒冠冠冠冠冠冠冠冠冠冠	-5640
!7	-5641
!8	-5642
29	-5643
像價	-5644
僳儡	-5645
儒允	-5646
允充	-5647
兽关	-5648
!!#	-5649
!(0	-5650
!)!	-5651
!*#	-5652
!*2	-5653
!+#	-5654
#%1	-5655
#2%	-5656
$2$	-5657
$2%	-5658
$45	-5659
%#*	-5660
&#*	-5661
&*4	-5662
&34	-5663
()!	-5664
()+	-5665
(11	-5666
(3<	-5667
*$!	-5668
*$1	-5669
*)(	-5670
+7<	-5671
0&3	-5672
03?	-5673
1$*	-5674
1%(	-5675
115	-5676
135	-5677
153	-5678
157	-5679
16<	-5680
1><	-5681
225	-5682
235	-5683
27<	-5684
2>4	-5685
2?<	-5686
3+6	-5687
4%3	-5688
41(	-5689
425	-5690
433	-5691
470	-5692
6+>	-5693
63>	-5694
71>	-5695
753	-5696
765	-5697
86<	-5698
:@:	-5699
<2+	-5700
<5+	-5701
<::	-5702
<<1	-5703
>72	-5704
>?4	-5705
?4@	-5706
?>:	-5707
?@?	-5708
@7>	-5709
@::	-5710
@<1	-5711
充僳價	-5712
充僳儉	-5713
养冠冠	-5714
冉冠冠	-5715
!%%&	-5716
#!#%	-5717
##$%	-5718
##&%	-5719
#$$#	-5720
#$$%	-5721
#$+(	-5722
#%0*	-5723
#%0+	-5724
#&%$	-5725
#+2(	-5726
#454	-5727
$$)!	-5728
$%&(	-5729
$%+$	-5730
$($(	-5731
$+#&	-5732
$+*%	-5733
$20+	-5734
%#($	-5735
%$%!	-5736
%%(!	-5737
%%)$	-5738
%%+2	-5739
%%00	-5740
%&*&	-5741
%(22	-5742
%*27	-5743
%+%*	-5744
%+(+	-5745
%+*%	-5746
%+2*	-5747
%2+*	-5748
&$#$	-5749
&%%#	-5750
&%&)	-5751
&%+(	-5752
&%+*	-5753
&&$$	-5754
&&$&	-5755
&(++	-5756
&+((	-5757
(!%%	-5758
(#+(	-5759
(#+*	-5760
($)$	-5761
($)(	-5762
(%)(	-5763
(%+2	-5764
(%01	-5765
(%1+	-5766
(&#!	-5767
((%!	-5768
(()%	-5769
((0$	-5770
((0%	-5771
((34	-5772
(**$	-5773
(*0(	-5774
(+$%	-5775
(+1(	-5776
(020	-5777
)#$#	-5778
)#%%	-5779
)$$)	-5780
)%%#	-5781
)(%*	-5782
)(+(	-5783
))&%	-5784
)*+*	-5785
)*27	-5786
)*34	-5787
*&#$	-5788
**%$	-5789
*+24	-5790
*+29	-5791
*0$*	-5792
*20(	-5793
*230	-5794
+%*(	-5795
+**$	-5796
+**%	-5797
+*+(	-5798
+0%%	-5799
+0%0	-5800
+0&0	-5801
+0+(	-5802
+00%	-5803
+002	-5804
+123	-5805
+254	-5806
+><6	-5807
0&($	-5808
0*+(	-5809
0+%#	-5810
0+%*	-5811
0+(&	-5812
0+04	-5813
0+30	-5814
0+>:	-5815
0003	-5816
0013	-5817
0124	-5818
02+2	-5819
024*	-5820
04<3	-5821
1++8	-5822
1+21	-5823
140(	-5824
144*	-5825
1444	-5826
145<	-5827
1464	-5828
147<	-5829
20%(	-5830
20*+	-5831
22+2	-5832
2214	-5833
230(	-5834
2572	-5835
3+1*	-5836
3079	-5837
323*	-5838
323+	-5839
342+	-5840
3525	-5841
421+	-5842
5+52	-5843
507?	-5844
517?	-5845
5201	-5846
521(	-5847
5<40	-5848
5<?>	-5849
6><5	-5850
7720	-5851
7>45	-5852
7><>	-5853
8<54	-5854
9@88	-5855
9@>@	-5856
<>64	-5857
>17+	-5858
>26<	-5859
>4@7	-5860
>668	-5861
>::>	-5862
><?6	-5863
@8>?	-5864
@<52	-5865
#%%(&	-5866
#%027	-5867
#(%((	-5868
$%%$#	-5869
$%(%%	-5870
$%(((	-5871
$(%((	-5872
%$%((	-5873
%%&%#	-5874
%%*%%	-5875
%&$%%	-5876
%(%%#	-5877
%(%(&	-5878
%((+(	-5879
%(*0+	-5880
%(+0+	-5881
%**+*	-5882
%+20(	-5883
(%(%%	-5884
((%%$	-5885
(((*$	-5886
((+(%	-5887
(+(%%	-5888
(+(*+	-5889
(+*++	-5890
(++*%	-5891
(+11+	-5892
*(12(	-5893
**&*(	-5894
*+(%%	-5895
*+(%(	-5896
*+(($	-5897
*+**$	-5898
*+0($	-5899
*+1+*	-5900
*+1+0	-5901
*+53+	-5902
*0%*(	-5903
*0+0(	-5904
*2564	-5905
*2574	-5906
0++($	-5907
00+0+	-5908
0121*	-5909
01210	-5910
02+0+	-5911
021+0	-5912
0222>	-5913
0233+	-5914
1+11+	-5915
11+46	-5916
1121*	-5917
17++5	-5918
213+*	-5919
2>2>:	-5920
34032	-5921
343+0	-5922
34354	-5923
52*43	-5924
53442	-5925
5<534	-5926
97(+1	-5927
<>4?8	-5928
冒冠冠冠冒	-5929
冠冠冠冠兽	-5930
%%%%%%	-5931
%%%(%%	-5932
(%(*%%	-5933
((1442	-5934
(*143+	-5935
*+1$79	-5936
0+00+0	-5937
6?4><3	-5938
72@464	-5939
7><<6:	-5940
<62?<@	-5941
@45241	-5942
冠冠冒冠冠冠	-5943
*(12$7@	-5944
023+47>	-5945
3<30+1(	-5946
6451+34	-5947
<@87><5	-5948
<@966>>	-5949
?8>7?4@	-5950
464613*75	-5951
6431+34+0	-5952
冠冠冠冠冠冠冠冠冕	-5953
@<87+*1211	-5954
04>><6?<@<?	-5955
#5	-5956
:+	-5957
<&	-5958
@0	-5959
傘儡	-5960
傲儡	-5961
僳兆	-5962
儉像	-5963
優傳	-5964
優僵	-5965
充免	-5966
养冕	-5967
#&1	-5968
$!!	-5969
$)*	-5970
$1*	-5971
$2(	-5972
&1*	-5973
&13	-5974
(##	-5975
(+5	-5976
)*!	-5977
)0$	-5978
)10	-5979
)2*	-5980
*#$	-5981
*2?	-5982
*33	-5983
*<4	-5984
+&0	-5985
+1#	-5986
+17	-5987
+4+	-5988
013	-5989
148	-5990
14?	-5991
17+	-5992
1>?	-5993
2%2	-5994
20#	-5995
24&	-5996
3**	-5997
31*	-5998
3>:	-5999
446	-6000
44>	-6001
50<	-6002
664	-6003
675	-6004
6::	-6005
7+4	-6006
716	-6007
724	-6008
73&	-6009
74<	-6010
770	-6011
7>7	-6012
7?:	-6013
862	-6014
872	-6015
9@<	-6016
:37	-6017
:42	-6018
:67	-6019
:>6	-6020
:@7	-6021
<3&	-6022
<42	-6023
<8>	-6024
<<0	-6025
>+5	-6026
>40	-6027
>62	-6028
>6<	-6029
>6@	-6030
>73	-6031
>7@	-6032
>86	-6033
?>7	-6034
??<	-6035
@?<	-6036
@??	-6037
关冠冠	-6038
!%%%	-6039
#$#!	-6040
#$*)	-6041
#+0%	-6042
#2+(	-6043
$!%%	-6044
$#$#	-6045
$$(+	-6046
$$)$	-6047
$%(+	-6048
$($%	-6049
$)$$	-6050
$*2+	-6051
$+($	-6052
$021	-6053
%#$&	-6054
%#&)	-6055
%#+*	-6056
%$$)	-6057
%$%+	-6058
%$*&	-6059
%$+*	-6060
%%!$	-6061
%%#+	-6062
%&&$	-6063
%(34	-6064
%*&)	-6065
%*+$	-6066
%+#+	-6067
%+&#	-6068
%+02	-6069
%+2(	-6070
%0+0	-6071
%0+1	-6072
&$%#	-6073
&%$$	-6074
&%++	-6075
&&#%	-6076
&&$)	-6077
&(*$	-6078
&(22	-6079
&*+0	-6080
&+(%	-6081
&+*&	-6082
&4><	-6083
($*#	-6084
($0*	-6085
(%!)	-6086
(%$&	-6087
(%($	-6088
(&)&	-6089
(&)(	-6090
(&*#	-6091
((!)	-6092
(*+2	-6093
(*12	-6094
(+%0	-6095
(02+	-6096
(123	-6097
(2+(	-6098
(5<7	-6099
)!#%	-6100
)!%#	-6101
)!%&	-6102
)!(%	-6103
)#&#	-6104
)$)(	-6105
)$*#	-6106
)$+*	-6107
)%%*	-6108
)%(*	-6109
)&&)	-6110
)&*&	-6111
)&0*	-6112
)(&*	-6113
))$#	-6114
*#((	-6115
*$#(	-6116
*%(+	-6117
*%++	-6118
*%1*	-6119
*($$	-6120
*(+1	-6121
*(2*	-6122
***0	-6123
*+&*	-6124
*+(2	-6125
*++8	-6126
*03+	-6127
*2**	-6128
*2+%	-6129
*2+1	-6130
+#%#	-6131
+((*	-6132
+(2+	-6133
+*$)	-6134
++&+	-6135
++($	-6136
++(*	-6137
++*$	-6138
++00	-6139
++12	-6140
++32	-6141
+10(	-6142
+2*%	-6143
+25>	-6144
+574	-6145
0$**	-6146
0%12	-6147
0&02	-6148
0(0*	-6149
0(2*	-6150
0*&*	-6151
0+%$	-6152
0++$	-6153
0+33	-6154
00$*	-6155
00&)	-6156
0022	-6157
0043	-6158
02(0	-6159
02*1	-6160
0474	-6161
1%0(	-6162
1+&?	-6163
1+(#	-6164
1++#	-6165
1023	-6166
12*%	-6167
120%	-6168
1400	-6169
1410	-6170
143*	-6171
1445	-6172
2*+2	-6173
2+(+	-6174
2123	-6175
213+	-6176
2234	-6177
237<	-6178
241+	-6179
2432	-6180
3+54	-6181
3120	-6182
3121	-6183
3169	-6184
32*2	-6185
3222	-6186
3445	-6187
346<	-6188
40%4	-6189
44+*	-6190
464>	-6191
523+	-6192
5400	-6193
545+	-6194
6254	-6195
6264	-6196
67<6	-6197
68:6	-6198
6:67	-6199
8547	-6200
:454	-6201
:7#*	-6202
<614	-6203
<724	-6204
<76<	-6205
<7<4	-6206
<>6<	-6207
>+@4	-6208
>7?2	-6209
?:?>	-6210
@4>7	-6211
@66?	-6212
@8:>	-6213
@932	-6214
@<?1	-6215
!%%%%	-6216
!((%(	-6217
##&((	-6218
#$(($	-6219
#%047	-6220
#++*(	-6221
$%(&%	-6222
$(($%	-6223
$((&(	-6224
$*%%(	-6225
%$((&	-6226
%%&%$	-6227
%%)%%	-6228
%&%(%	-6229
%&&%$	-6230
%(%%&	-6231
%(%(#	-6232
%(&%#	-6233
%(&(&	-6234
%((&(	-6235
%((*%	-6236
%*&*(	-6237
%*+((	-6238
&%%%%	-6239
(%%%$	-6240
(%**+	-6241
(%*+*	-6242
(%+*(	-6243
(%1+%	-6244
(((((	-6245
((*((	-6246
((1+(	-6247
(*%+*	-6248
(*&**	-6249
(*((%	-6250
(++0(	-6251
*%(($	-6252
*(+*(	-6253
*(0(%	-6254
*(1+!	-6255
*(12%	-6256
*+0+1	-6257
*+1+&	-6258
*+12(	-6259
*+21+	-6260
*0+00	-6261
*221+	-6262
*224:	-6263
0++(&	-6264
0++*(	-6265
00+(#	-6266
003+*	-6267
02*0+	-6268
0220+	-6269
122*&	-6270
13+45	-6271
2122*	-6272
3142+	-6273
3420+	-6274
52422	-6275
5343+	-6276
54(42	-6277
6451+	-6278
<6<>3	-6279
@<544	-6280
冠冠冠冠冉	-6281
#%0242	-6282
#*+24:	-6283
%%%(&%	-6284
%%(*%(	-6285
%&((%%	-6286
%&((%(	-6287
%*240$	-6288
%3532(	-6289
0224::	-6290
0244:8	-6291
025+27	-6292
0736:@	-6293
5234+0	-6294
52@464	-6295
<67452	-6296
>66>1>	-6297
&4>:4#1	-6298
*(*%%(%	-6299
*+12$<@	-6300
9?>>?<@	-6301
冕冠冠冠冠冠冠	-6302
冠冠冠冒冠冠冠	-6303
(253(**+	-6304
*+574:69	-6305
6>230+42	-6306
6><61453	-6307
7><63473	-6308
5+<75+0410	-6309
冕冠冠冠冠冠冠冠冠冠冠	-6310
冠冠冠冠冠冠冠冠冠冠冠冕	-6311
冒冠冠冠冠冠冠冠冠冠冠冠冠冠	-6312
冒冠冠冠冠冠冠冠冠冠冠冠冠冠冠	-6313
3!	-6314
5)	-6315
6(	-6316
91	-6317
價傘	-6318
儉僳	-6319
儒價	-6320
儡儉	-6321
儡儿	-6322
元兆	-6323
充僧	-6324
兆儀	-6325
冠关	-6326
!!$	-6327
!$+	-6328
!&!	-6329
!))	-6330
!)+	-6331
#)(	-6332
#4+	-6333
#41	-6334
#45	-6335
$40	-6336
%!!	-6337
&2%	-6338
&42	-6339
&4>	-6340
($1	-6341
((1	-6342
(1*	-6343
(52	-6344
)!*	-6345
*)+	-6346
*11	-6347
*5+	-6348
+$!	-6349
+2!	-6350
00<	-6351
033	-6352
04&	-6353
162	-6354
2$*	-6355
2*1	-6356
227	-6357
24$	-6358
3(0	-6359
301	-6360
305	-6361
33%	-6362
362	-6363
37:	-6364
4*+	-6365
4+0	-6366
4+2	-6367
41$	-6368
45+	-6369
47<	-6370
4<6	-6371
4<>	-6372
4>9	-6373
4@:	-6374
533	-6375
53<	-6376
64+	-6377
689	-6378
6>9	-6379
74@	-6380
77@	-6381
812	-6382
830	-6383
<2&	-6384
<59	-6385
<7+	-6386
<76	-6387
<89	-6388
<<:	-6389
<<<	-6390
>1@	-6391
>89	-6392
@:4	-6393
@><	-6394
!#%&	-6395
!%$%	-6396
!&(%	-6397
!&((	-6398
#$)&	-6399
#$))	-6400
#%!%	-6401
#%0(	-6402
#(+%	-6403
#)%*	-6404
#*%%	-6405
#*27	-6406
#+%%	-6407
#+%(	-6408
#+&*	-6409
#+0*	-6410
#0+0	-6411
$#&&	-6412
$$)&	-6413
$($#	-6414
$)%%	-6415
$)%*	-6416
$*(%	-6417
$*(0	-6418
$01+	-6419
$02+	-6420
%!#%	-6421
%#&&	-6422
%#+0	-6423
%%1<	-6424
%&##	-6425
%&%*	-6426
%&0+	-6427
%&12	-6428
%(#%	-6429
%(#+	-6430
%((!	-6431
%(02	-6432
%)!#	-6433
%)%#	-6434
%*$*	-6435
%+()	-6436
%+*$	-6437
%+0*	-6438
%+10	-6439
%+32	-6440
%0%(	-6441
%232	-6442
&$%)	-6443
&($%	-6444
&(&%	-6445
&(+2	-6446
&)$$	-6447
&*22	-6448
&+*$	-6449
&++*	-6450
&1<4	-6451
(#&%	-6452
($0+	-6453
(%#+	-6454
(%$*	-6455
(%&!	-6456
(%+)	-6457
(&+%	-6458
(((!	-6459
((*!	-6460
(**(	-6461
(+%&	-6462
(021	-6463
(32#	-6464
)%%$	-6465
)&#(	-6466
)&)%	-6467
)(((	-6468
)10$	-6469
*%%$	-6470
*%%&	-6471
*%*0	-6472
*&(&	-6473
*&+(	-6474
*&12	-6475
*(%$	-6476
*(*)	-6477
*(+)	-6478
*(+2	-6479
*+#%	-6480
*++?	-6481
*+0)	-6482
*+2#	-6483
*0$)	-6484
*0%)	-6485
*0%1	-6486
*1+0	-6487
*12+	-6488
*2+2	-6489
*201	-6490
*21*	-6491
*233	-6492
*42+	-6493
+(($	-6494
+*%&	-6495
+*21	-6496
++%$	-6497
++*&	-6498
++*2	-6499
+0%(	-6500
+0*%	-6501
+03+	-6502
+1+0	-6503
+10*	-6504
+2#+	-6505
+23>	-6506
+334	-6507
+344	-6508
+354	-6509
0%0&	-6510
0((%	-6511
0*+1	-6512
0+%?	-6513
0+2#	-6514
00%)	-6515
01+%	-6516
02*%	-6517
042#	-6518
042(	-6519
043+	-6520
0441	-6521
1(0*	-6522
1+01	-6523
1+1%	-6524
11+#	-6525
11+%	-6526
1111	-6527
12+)	-6528
1277	-6529
12<1	-6530
13+#	-6531
14**	-6532
144+	-6533
1472	-6534
1474	-6535
14>:	-6536
201+	-6537
2124	-6538
22++	-6539
2202	-6540
23+*	-6541
230%	-6542
2452	-6543
2574	-6544
32((	-6545
3240	-6546
3404	-6547
344*	-6548
345+	-6549
37:@	-6550
3<42	-6551
43+(	-6552
473+	-6553
5+31	-6554
5232	-6555
5262	-6556
5476	-6557
578@	-6558
5<54	-6559
65>8	-6560
6:@<	-6561
7(02	-6562
7443	-6563
76<>	-6564
7724	-6565
7>46	-6566
7@9@	-6567
86>@	-6568
:>82	-6569
<@?7	-6570
>+>4	-6571
>+@:	-6572
>>>?	-6573
?768	-6574
@<@7	-6575
关关关关	-6576
养冠冠冠	-6577
#$%%$	-6578
#%$%%	-6579
#%%*(	-6580
#%(&%	-6581
$%%$%	-6582
$%%$)	-6583
$(($(	-6584
$((+*	-6585
%$%%%	-6586
%%%#$	-6587
%&%($	-6588
%(&%)	-6589
%((%#	-6590
%((++	-6591
%(*((	-6592
%*((*	-6593
%*(*(	-6594
%++*%	-6595
&%&%%	-6596
&%&&&	-6597
&(%%&	-6598
(%((%	-6599
(%(((	-6600
(%0((	-6601
(&(+*	-6602
(&*%%	-6603
(&*($	-6604
(((*%	-6605
((20+	-6606
(*$(%	-6607
(*&((	-6608
(*+0*	-6609
(+(0+	-6610
(+*0+	-6611
(++*(	-6612
(+132	-6613
)$(%%	-6614
)%%(&	-6615
)%&(%	-6616
)&(($	-6617
)(&((	-6618
*%1+$	-6619
*(((&	-6620
*(0&*	-6621
*(1+)	-6622
**21+	-6623
*+(*%	-6624
*+(*+	-6625
*++($	-6626
*++(&	-6627
*+0&*	-6628
*+0(*	-6629
*021+	-6630
0+*%#	-6631
0+**%	-6632
0+**+	-6633
0++0+	-6634
0+0(*	-6635
01254	-6636
02*1+	-6637
02112	-6638
0213+	-6639
022%+	-6640
023+*	-6641
02332	-6642
04??8	-6643
1+(2+	-6644
1+0*$	-6645
1201+	-6646
1441+	-6647
15?:4	-6648
3+134	-6649
34132	-6650
34334	-6651
3<>34	-6652
4>0>8	-6653
52312	-6654
54%4+	-6655
64024	-6656
8>164	-6657
?:@?<	-6658
@2@8:	-6659
@8576	-6660
%&%%%%	-6661
)*+24:	-6662
*+1%7:	-6663
*+3++?	-6664
122<?9	-6665
2332<2	-6666
3743(4	-6667
6<14@:	-6668
:6231+	-6669
>2>::7	-6670
?>*+?9	-6671
@2>:97	-6672
冠冠冠冒冠冠	-6673
$4>:4)1	-6674
(%02&<>	-6675
68:623*	-6676
77204<5	-6677
<@26<98	-6678
*+374:>9	-6679
62?<64@8	-6680
<@2@8:6431+14+0	-6681
冒冠冠冠冠冠冠冠冠冠冠冠冠冠冠冠	-6682
)7	-6683
3#	-6684
傘價	-6685
元儡	-6686
充傳	-6687
充儡	-6688
兆像	-6689
兆僳	-6690
冉写	-6691
写兽	-6692
冠冊	-6693
!!%	-6694
!#+	-6695
!00	-6696
###	-6697
#*!	-6698
#01	-6699
$*!	-6700
$+3	-6701
%)+	-6702
%1%	-6703
%13	-6704
%3+	-6705
&33	-6706
($2	-6707
(%4	-6708
(*1	-6709
(*3	-6710
(43	-6711
)%2	-6712
*#+	-6713
*$2	-6714
*)*	-6715
*+>	-6716
*07	-6717
*1*	-6718
*2@	-6719
*4@	-6720
*<2	-6721
0(4	-6722
04*	-6723
1$1	-6724
11<	-6725
13(	-6726
14)	-6727
177	-6728
17:	-6729
1@4	-6730
2(%	-6731
2(2	-6732
22<	-6733
24%	-6734
3+7	-6735
378	-6736
3<+	-6737
415	-6738
417	-6739
477	-6740
5%0	-6741
517	-6742
53$	-6743
531	-6744
6+6	-6745
63?	-6746
677	-6747
6<0	-6748
6?:	-6749
70+	-6750
710	-6751
7<<	-6752
7<@	-6753
7@?	-6754
854	-6755
87)	-6756
8>:	-6757
8?4	-6758
9>8	-6759
9@:	-6760
:@<	-6761
<1<	-6762
<3$	-6763
<47	-6764
<:9	-6765
<??	-6766
>21	-6767
>32	-6768
>57	-6769
>6:	-6770
><0	-6771
><1	-6772
><2	-6773
?1>	-6774
?47	-6775
?:8	-6776
??4	-6777
@47	-6778
@<8	-6779
@?4	-6780
@?:	-6781
兆僳僧	-6782
冕冒冠	-6783
冠冒冒	-6784
!%%!	-6785
!&%&	-6786
##%%	-6787
#$$)	-6788
#$)(	-6789
#$14	-6790
#%!)	-6791
#&#)	-6792
#&1<	-6793
#(&*	-6794
#0+(	-6795
#453	-6796
#736	-6797
$#%(	-6798
$#&$	-6799
$#(%	-6800
$$#$	-6801
$$%#	-6802
$%&&	-6803
$&#$	-6804
$&#&	-6805
$&%#	-6806
$&+(	-6807
$(#&	-6808
$)$%	-6809
$*&*	-6810
$*($	-6811
$*(+	-6812
$*+&	-6813
$+(+	-6814
$0+0	-6815
$134	-6816
$277	-6817
%#!%	-6818
%#(&	-6819
%#*%	-6820
%#+(	-6821
%$##	-6822
%$$(	-6823
%$)!	-6824
%$)(	-6825
%$+(	-6826
%%!(	-6827
%%*2	-6828
%%15	-6829
%&)(	-6830
%&+%	-6831
%&02	-6832
%*%+	-6833
%+#$	-6834
%+&(	-6835
%+1*	-6836
%02+	-6837
%021	-6838
%024	-6839
%144	-6840
%2+(	-6841
%20+	-6842
%474	-6843
&#%&	-6844
&#&&	-6845
&#($	-6846
&$)&	-6847
&&$%	-6848
&*%$	-6849
&*+(	-6850
&112	-6851
($#+	-6852
($$$	-6853
($++	-6854
($0(	-6855
($02	-6856
(%##	-6857
(%+#	-6858
((#*	-6859
()&%	-6860
(*%+	-6861
(*0%	-6862
(+#*	-6863
(+$)	-6864
(0$#	-6865
(0$*	-6866
(0%0	-6867
(0+3	-6868
(024	-6869
(03+	-6870
(1+#	-6871
(121	-6872
)#$%	-6873
)#(*	-6874
)$)$	-6875
)$+(	-6876
)%$&	-6877
)%*%	-6878
)&+(	-6879
)((#	-6880
)(*+	-6881
)*%*	-6882
)+0*	-6883
*$+(	-6884
*%+?	-6885
*%0$	-6886
*%0&	-6887
*%11	-6888
*%32	-6889
*&#&	-6890
*&#(	-6891
*&%$	-6892
*(*#	-6893
*(1*	-6894
*(2+	-6895
**&&	-6896
**+$	-6897
**00	-6898
*+)(	-6899
*+0#	-6900
*+23	-6901
*+37	-6902
*0%%	-6903
*0&%	-6904
*0(0	-6905
*02*	-6906
*2*0	-6907
*2*1	-6908
*235	-6909
*3+0	-6910
*61>	-6911
+*$+	-6912
+*%#	-6913
++23	-6914
++24	-6915
+0%)	-6916
+0(2	-6917
+024	-6918
+1*$	-6919
+112	-6920
+2($	-6921
+2+0	-6922
+221	-6923
+234	-6924
0%1*	-6925
0%10	-6926
0*%#	-6927
0*0*	-6928
0*03	-6929
0+(0	-6930
0000	-6931
001+	-6932
01%#	-6933
02#+	-6934
02%*	-6935
020$	-6936
020&	-6937
022)	-6938
024+	-6939
0274	-6940
03+*	-6941
04+0	-6942
0432	-6943
04>>	-6944
1+#+	-6945
1+*#	-6946
1+0)	-6947
1011	-6948
11+:	-6949
1113	-6950
11>9	-6951
1204	-6952
1273	-6953
1345	-6954
1417	-6955
142%	-6956
1430	-6957
14>7	-6958
20(*	-6959
221+	-6960
224:	-6961
230+	-6962
2>2@	-6963
34**	-6964
34+#	-6965
36<6	-6966
3<52	-6967
520*	-6968
525+	-6969
53>>	-6970
542(	-6971
542+	-6972
5473	-6973
5477	-6974
5720	-6975
57<5	-6976
5<@?	-6977
6412	-6978
6430	-6979
763>	-6980
77+3	-6981
7>4>	-6982
7@:?	-6983
9??:	-6984
:526	-6985
:74>	-6986
<67>	-6987
<>52	-6988
?:?6	-6989
@4>4	-6990
@952	-6991
@97+	-6992
@:>4	-6993
@:>8	-6994
BAAB	-6995
BBBC	-6996
#$%((	-6997
#%*1>	-6998
#&&%&	-6999
#&(%$	-7000
#&*%(	-7001
#(%(%	-7002
#(%*(	-7003
#(((%	-7004
$%%%$	-7005
$&%%%	-7006
%%$%#	-7007
%%%%(	-7008
%%&%)	-7009
%%(&%	-7010
%%(((	-7011
%%(*&	-7012
%%+*(	-7013
%&%%%	-7014
%($*(	-7015
%(&($	-7016
%(&*(	-7017
%(*+%	-7018
%*&(%	-7019
%*(+*	-7020
%*+*(	-7021
%+152	-7022
%0+00	-7023
%46:4	-7024
&((%%	-7025
&((%(	-7026
&((&%	-7027
&*%**	-7028
&*(((	-7029
&*(**	-7030
&46:4	-7031
($*(1	-7032
(%#%$	-7033
(%%*%	-7034
(%(%)	-7035
(&(%%	-7036
((%($	-7037
((%(&	-7038
((%**	-7039
((*%%	-7040
((0++	-7041
((1+%	-7042
(*%%%	-7043
(*+(%	-7044
(+*((	-7045
(++((	-7046
(+11&	-7047
(+21+	-7048
)$(%(	-7049
*%((%	-7050
*%1+!	-7051
*%334	-7052
*+*%%	-7053
*+*($	-7054
*+0*$	-7055
*+0*&	-7056
*+00&	-7057
*+1*2	-7058
*0+1+	-7059
*020*	-7060
*0232	-7061
++002	-7062
+0++(	-7063
0+**(	-7064
0+0*&	-7065
0+0**	-7066
0+0+(	-7067
0+01+	-7068
0+1(*	-7069
00232	-7070
022*&	-7071
024(+	-7072
0242*	-7073
042+*	-7074
05<45	-7075
0>?45	-7076
1+0(*	-7077
12+0+	-7078
120*+	-7079
1233+	-7080
12432	-7081
1421+	-7082
147$4	-7083
155+*	-7084
245**	-7085
32646	-7086
32734	-7087
343+*	-7088
37<8@	-7089
52120	-7090
54(4+	-7091
54352	-7092
62@5>	-7093
798@<	-7094
7:?>7	-7095
7><45	-7096
8+022	-7097
82572	-7098
<7514	-7099
<@7*2	-7100
<@88?	-7101
>7?4@	-7102
冠冠冠冠养	-7103
#%*1>:	-7104
%$((%%	-7105
%%(%((	-7106
%%((%%	-7107
%%((((	-7108
%&((0+	-7109
%(%(%&	-7110
*(((%%	-7111
0+2<9?	-7112
021200	-7113
022<89	-7114
1224>:	-7115
3+33+0	-7116
3411%*	-7117
45443+	-7118
678>26	-7119
75>803	-7120
77558@	-7121
82254@	-7122
<)04@?	-7123
<>?<@4	-7124
<@<?>4	-7125
<@>8>2	-7126
>?<6<7	-7127
@:@?37	-7128
#%*+24:	-7129
%$*(1+$	-7130
(%11&46	-7131
132*+43	-7132
2>2>:@7	-7133
374&1<4	-7134
3?462>4	-7135
5+454>:	-7136
>862*21	-7137
%$*+3+!?	-7138
*6845403	-7139
<75+0440	-7140
@2@::623	-7141
0(342*+0(	-7142
6451+12(*	-7143
8:6+52012	-7144
冠冠冠冠冠冒冠冠冠	-7145
77+0441(+*	-7146
<@7?@43241	-7147
77+0441(+*&$%	-7148
$8	-7149
(<	-7150
)<	-7151
3)	-7152
6%	-7153
:0	-7154
@@	-7155
僧充	-7156
價儀	-7157
儀僵	-7158
優傲	-7159
儿傳	-7160
儿儡	-7161
充儉	-7162
兆儉	-7163
兆元	-7164
冉关	-7165
!0(	-7166
!42	-7167
#(1	-7168
#04	-7169
$+!	-7170
$1<	-7171
$3<	-7172
$43	-7173
%2&	-7174
%4*	-7175
%40	-7176
&!$	-7177
&#2	-7178
&))	-7179
&)*	-7180
&+4	-7181
&17	-7182
&1<	-7183
&31	-7184
(!$	-7185
(03	-7186
(41	-7187
)(2	-7188
)+3	-7189
)0(	-7190
)2$	-7191
*(4	-7192
*5:	-7193
*73	-7194
+73	-7195
0%&	-7196
01!	-7197
031	-7198
04$	-7199
1$0	-7200
1&#	-7201
1(+	-7202
15?	-7203
1>4	-7204
2%(	-7205
24#	-7206
2<3	-7207
2>2	-7208
3%0	-7209
3%3	-7210
33(	-7211
33@	-7212
36:	-7213
4+)	-7214
40&	-7215
423	-7216
43*	-7217
435	-7218
5++	-7219
530	-7220
567	-7221
589	-7222
5>>	-7223
69?	-7224
76+	-7225
8+4	-7226
9@8	-7227
:>>	-7228
<02	-7229
<13	-7230
<4#	-7231
<4>	-7232
<70	-7233
<85	-7234
<>@	-7235
<?:	-7236
>3<	-7237
>4:	-7238
>75	-7239
>77	-7240
>7>	-7241
>8<	-7242
>:8	-7243
>@>	-7244
?30	-7245
?7(	-7246
?72	-7247
?>5	-7248
@9?	-7249
充儒儿	-7250
兆僳儀	-7251
!#$#	-7252
!#$%	-7253
!((!	-7254
!+0+	-7255
!00+	-7256
#!#$	-7257
#!()	-7258
#%&&	-7259
#%+%	-7260
#%00	-7261
#&##	-7262
#&0(	-7263
#)$#	-7264
#*%(	-7265
#*&#	-7266
#*&(	-7267
#+&#	-7268
#+10	-7269
$#&%	-7270
$#(+	-7271
$$&$	-7272
$$&%	-7273
$%!%	-7274
$%%(	-7275
$%+*	-7276
$&$%	-7277
$&$&	-7278
$&%(	-7279
$&&%	-7280
$&($	-7281
$&*(	-7282
$(&%	-7283
$(+2	-7284
$)%&	-7285
$)&(	-7286
$+%(	-7287
$0*+	-7288
%!%)	-7289
%#%)	-7290
%$%*	-7291
%$*#	-7292
%$*$	-7293
%%##	-7294
%%#)	-7295
%%*#	-7296
%&))	-7297
%(!(	-7298
%($!	-7299
%()$	-7300
%)((	-7301
%*(+	-7302
%+$(	-7303
%+%)	-7304
%+1(	-7305
%+12	-7306
%0+(	-7307
&#(&	-7308
&$#%	-7309
&$*+	-7310
&%&!	-7311
&%)$	-7312
&%)&	-7313
&&%#	-7314
&&($	-7315
&&)%	-7316
&&)&	-7317
&($(	-7318
&+($	-7319
&0((	-7320
&0*&	-7321
&012	-7322
(#(%	-7323
($%!	-7324
(%!%	-7325
(%*2	-7326
(&(!	-7327
(&++	-7328
((*#	-7329
((2*	-7330
()+(	-7331
(*$0	-7332
(*%!	-7333
(**2	-7334
(*14	-7335
(+%$	-7336
(+*0	-7337
(+33	-7338
(+34	-7339
(+43	-7340
(0%#	-7341
(0+#	-7342
(00+	-7343
(21+	-7344
)%%&	-7345
)%&&	-7346
)%(#	-7347
)&*#	-7348
)&00	-7349
)(++	-7350
)))#	-7351
)*((	-7352
)0+*	-7353
*$*2	-7354
*%)&	-7355
*%*&	-7356
*%+#	-7357
*%02	-7358
*%10	-7359
*&*2	-7360
**#0	-7361
**%&	-7362
**+)	-7363
**1%	-7364
*+%0	-7365
*++!	-7366
*+45	-7367
*0$0	-7368
*0((	-7369
*0**	-7370
*2%(	-7371
*2+$	-7372
*20%	-7373
*244	-7374
*420	-7375
+#%%	-7376
+$++	-7377
+*$&	-7378
+*0&	-7379
+*1+	-7380
+*2*	-7381
++#+	-7382
++*0	-7383
+++%	-7384
++1+	-7385
+0%#	-7386
+0*&	-7387
+0*0	-7388
+00&	-7389
+023	-7390
+1+1	-7391
+120	-7392
+154	-7393
+2*+	-7394
+20&	-7395
+20(	-7396
+222	-7397
+224	-7398
+33+	-7399
+432	-7400
0$0+	-7401
0%(%	-7402
0&0(	-7403
0&00	-7404
0&1+	-7405
0+#&	-7406
0+&*	-7407
0+)%	-7408
0+0!	-7409
00&#	-7410
0032	-7411
0035	-7412
01%(	-7413
02(%	-7414
02(+	-7415
02+&	-7416
0245	-7417
04+(	-7418
0423	-7419
0433	-7420
04<6	-7421
1*>9	-7422
1++&	-7423
1+22	-7424
10%%	-7425
11(*	-7426
11++	-7427
122#	-7428
122)	-7429
13%1	-7430
1372	-7431
14(*	-7432
1414	-7433
146<	-7434
15+1	-7435
15>:	-7436
1721	-7437
17<>	-7438
2*%$	-7439
2*++	-7440
2*+0	-7441
2*1+	-7442
20+(	-7443
200+	-7444
211+	-7445
2142	-7446
2220	-7447
230*	-7448
2312	-7449
2342	-7450
2414	-7451
242*	-7452
3+%2	-7453
3+11	-7454
3+30	-7455
3+52	-7456
30**	-7457
3201	-7458
3202	-7459
3233	-7460
3322	-7461
33<7	-7462
3403	-7463
341(	-7464
3412	-7465
3423	-7466
3437	-7467
3546	-7468
3722	-7469
41%4	-7470
41(4	-7471
42#2	-7472
4752	-7473
52*2	-7474
520(	-7475
536:	-7476
5420	-7477
5440	-7478
5453	-7479
5475	-7480
5<43	-7481
5<77	-7482
5>67	-7483
6*3?	-7484
621+	-7485
6311	-7486
6454	-7487
6753	-7488
6<33	-7489
7*02	-7490
7454	-7491
77<5	-7492
77<>	-7493
7>?<	-7494
8668	-7495
8>+5	-7496
:144	-7497
<645	-7498
<647	-7499
<734	-7500
>87>	-7501
>:@:	-7502
><@2	-7503
?4>2	-7504
?>23	-7505
@768	-7506
@:?>	-7507
冒冠冠冒	-7508
#$(%$	-7509
#%%(%	-7510
#%(%%	-7511
#&(%%	-7512
#*34<	-7513
#+13$	-7514
$%%&#	-7515
$%(&#	-7516
$(($#	-7517
$(($)	-7518
$(*%%	-7519
$*(+*	-7520
%$#$#	-7521
%$#($	-7522
%$(($	-7523
%%%(#	-7524
%%%*(	-7525
%&($%	-7526
%&*%%	-7527
%&12&	-7528
%(%$)	-7529
%(%**	-7530
%(%*+	-7531
%(&%&	-7532
%(&(#	-7533
%((+%	-7534
%(*&%	-7535
%(+((	-7536
%(00+	-7537
%++0+	-7538
%+13$	-7539
&%%(%	-7540
&&%%&	-7541
&(%%#	-7542
&(($#	-7543
&*(%(	-7544
&*((%	-7545
&00+*	-7546
($*%*	-7547
($*0+	-7548
(%%+(	-7549
(%*%%	-7550
((%+(	-7551
((&#&	-7552
((((!	-7553
(((0+	-7554
((*%#	-7555
((+($	-7556
((+*+	-7557
((11&	-7558
((34<	-7559
(*$((	-7560
(*&%%	-7561
(*++*	-7562
(*+0+	-7563
(+(($	-7564
(+01+	-7565
(+112	-7566
(+20+	-7567
(0+*(	-7568
(0+0(	-7569
)&*((	-7570
)(%((	-7571
*$*((	-7572
*&04+	-7573
*(((%	-7574
*((*$	-7575
*((*&	-7576
*(*%$	-7577
*(*+*	-7578
*(0%*	-7579
*(0(+	-7580
*+**&	-7581
*+*0(	-7582
*+0*%	-7583
*+032	-7584
*+12&	-7585
*+13+	-7586
*+3<4	-7587
*2+*(	-7588
*211+	-7589
*220+	-7590
++*2+	-7591
+0&*(	-7592
+02+*	-7593
0+*%%	-7594
0+**&	-7595
0+0%(	-7596
0+00&	-7597
0+31+	-7598
02012	-7599
02149	-7600
022*%	-7601
023+0	-7602
0420+	-7603
11*0+	-7604
121((	-7605
121+1	-7606
12112	-7607
1231+	-7608
23<@:	-7609
254>>	-7610
3+1+*	-7611
3210+	-7612
32312	-7613
4%3<@	-7614
51442	-7615
54774	-7616
6+312	-7617
84774	-7618
8>3>4	-7619
:+022	-7620
:6*4?	-7621
<<0*2	-7622
<>2@:	-7623
<@:8?	-7624
<@:@?	-7625
>17>6	-7626
><@4>	-7627
>?<?8	-7628
?2>48	-7629
?5717	-7630
@9?>1	-7631
#*34<<	-7632
#1<>?<	-7633
%%%($#	-7634
&+0(#(	-7635
(%*(((	-7636
(&12&?	-7637
((((%(	-7638
(*112:	-7639
)+35**	-7640
*%*++*	-7641
*+34+4	-7642
0+0*+*	-7643
0+1121	-7644
00251%	-7645
023+<>	-7646
025+47	-7647
144:>9	-7648
5+*240	-7649
86+320	-7650
862132	-7651
:5264>	-7652
:@>855	-7653
<>+?<>	-7654
>+>4>>	-7655
?82572	-7656
@4@::6	-7657
@>:612	-7658
冠冒冠冠冠冒	-7659
%&02&<>	-7660
*+10+<@	-7661
032#+2*	-7662
17++567	-7663
2@<?034	-7664
@4@:9@4	-7665
*%5<<<<>	-7666
*+3348>9	-7667
?845343+	-7668
%%01&46:4	-7669
57+0441(+*$	-7670
&8	-7671
?%	-7672
像僳	-7673
像儉	-7674
像儡	-7675
僧傳	-7676
僧僳	-7677
僧儒	-7678
價儒	-7679
儀僳	-7680
儒傲	-7681
儒傻	-7682
儒僵	-7683
允儀	-7684
允儒	-7685
兆免	-7686
免兆	-7687
!!&	-7688
!*)	-7689
#)!	-7690
#*1	-7691
#3+	-7692
$+?	-7693
$2)	-7694
$2<	-7695
$31	-7696
$33	-7697
$37	-7698
%%1	-7699
%)#	-7700
%1<	-7701
%41	-7702
%73	-7703
&&2	-7704
&45	-7705
()#	-7706
)#)	-7707
)#+	-7708
)*4	-7709
)+!	-7710
)2&	-7711
)34	-7712
*$4	-7713
*%3	-7714
*3%	-7715
*77	-7716
*<5	-7717
*<<	-7718
+#!	-7719
+%4	-7720
+&2	-7721
+4#	-7722
+74	-7723
+<2	-7724
0+<	-7725
03$	-7726
06<	-7727
2%$	-7728
2%&	-7729
2*#	-7730
2*0	-7731
21#	-7732
246	-7733
249	-7734
255	-7735
264	-7736
272	-7737
2<2	-7738
2><	-7739
3$1	-7740
3&3	-7741
3*+	-7742
3*2	-7743
3++	-7744
30%	-7745
376	-7746
4%1	-7747
4+1	-7748
407	-7749
42<	-7750
431	-7751
44<	-7752
467	-7753
4<2	-7754
51+	-7755
57*	-7756
575	-7757
6+*	-7758
6+3	-7759
616	-7760
668	-7761
6>:	-7762
7+5	-7763
715	-7764
72@	-7765
731	-7766
75(	-7767
8?#	-7768
8?:	-7769
8@3	-7770
94+	-7771
964	-7772
98@	-7773
:87	-7774
<5>	-7775
<:<	-7776
<?4	-7777
>42	-7778
>53	-7779
?35	-7780
?:7	-7781
?<?	-7782
@7@	-7783
@99	-7784
▁冠养	-7785
優兆優	-7786
充儒充	-7787
写冠冠	-7788
冠冒冕	-7789
冠冠冊	-7790
!$(%	-7791
#!%&	-7792
#!&&	-7793
#$%!	-7794
#$(!	-7795
#$0(	-7796
#%$$	-7797
#%$(	-7798
#%+#	-7799
#&#(	-7800
#&)%	-7801
#&+%	-7802
#(%&	-7803
#((0	-7804
#(+2	-7805
#(0(	-7806
#)(*	-7807
#*%#	-7808
#+#+	-7809
#+%$	-7810
#0++	-7811
#22*	-7812
#442	-7813
$#$*	-7814
$$#%	-7815
$$$%	-7816
$$&+	-7817
$$)+	-7818
$$++	-7819
$%&!	-7820
$%(!	-7821
$(+%	-7822
$(22	-7823
$)$(	-7824
$)&%	-7825
$)++	-7826
$*%#	-7827
$*%$	-7828
$*+$	-7829
$+%&	-7830
$+0*	-7831
$+02	-7832
$+21	-7833
$112	-7834
$212	-7835
%!&%	-7836
%#$$	-7837
%$)+	-7838
%$0+	-7839
%%+&	-7840
%&#!	-7841
%&$$	-7842
%&$(	-7843
%&0(	-7844
%(&!	-7845
%(2+	-7846
%)!%	-7847
%)$(	-7848
%)&#	-7849
%)+(	-7850
%*&0	-7851
%***	-7852
%*0&	-7853
%*1+	-7854
%*20	-7855
%+%+	-7856
%+*2	-7857
%++$	-7858
%0*$	-7859
%02(	-7860
%023	-7861
%253	-7862
%5<7	-7863
&#!#	-7864
&#&(	-7865
&$&#	-7866
&$&)	-7867
&$(&	-7868
&%*&	-7869
&%+%	-7870
&%+2	-7871
&(#&	-7872
&($#	-7873
&(%*	-7874
&(&#	-7875
&(02	-7876
&)&%	-7877
&*2+	-7878
&+*%	-7879
&0+0	-7880
&4>?	-7881
($%+	-7882
($)&	-7883
(&%*	-7884
(&%+	-7885
(&&(	-7886
(&)$	-7887
(&*2	-7888
((#$	-7889
(($!	-7890
((0*	-7891
((00	-7892
((21	-7893
()+*	-7894
(*$$	-7895
(*$+	-7896
(*0&	-7897
(*0*	-7898
(+%)	-7899
(+&$	-7900
(+(2	-7901
(+*#	-7902
(+*&	-7903
(+0$	-7904
(+14	-7905
(0%%	-7906
(0&(	-7907
(02*	-7908
(043	-7909
(1(*	-7910
(1+0	-7911
(120	-7912
)!#$	-7913
)$$$	-7914
)$$%	-7915
)$(+	-7916
)$))	-7917
)%()	-7918
)(&)	-7919
)(**	-7920
)(+%	-7921
)*$*	-7922
)*+(	-7923
)++)	-7924
)+2*	-7925
*#+*	-7926
*$#$	-7927
*$*&	-7928
*%#(	-7929
*%%*	-7930
*%54	-7931
*&)(	-7932
*&14	-7933
*(#+	-7934
**3<	-7935
*+#&	-7936
*+&&	-7937
*+03	-7938
*+04	-7939
*+40	-7940
*0+$	-7941
*0+&	-7942
*01$	-7943
*022	-7944
*2&(	-7945
*2(0	-7946
*2*%	-7947
*203	-7948
*22#	-7949
*224	-7950
*232	-7951
*234	-7952
*34<	-7953
+%0+	-7954
+&*+	-7955
+(%$	-7956
+(&%	-7957
+((+	-7958
+(+2	-7959
+)++	-7960
+*0$	-7961
++$$	-7962
++)$	-7963
++)+	-7964
+0&(	-7965
+0(#	-7966
+0()	-7967
+0*(	-7968
+0+3	-7969
+152	-7970
+21(	-7971
+244	-7972
+31+	-7973
+314	-7974
0$0*	-7975
0%((	-7976
0%02	-7977
0%1+	-7978
0&**	-7979
0(*0	-7980
0(21	-7981
0*(0	-7982
0*+#	-7983
0*>:	-7984
0011	-7985
002*	-7986
01%0	-7987
01+$	-7988
0147	-7989
02*&	-7990
022&	-7991
023(	-7992
04++	-7993
0475	-7994
04@:	-7995
1(0+	-7996
1*+(	-7997
1*1+	-7998
1+(*	-7999
10%(	-8000
11**	-8001
1100	-8002
1143	-8003
12(2	-8004
12*1	-8005
121&	-8006
123(	-8007
1274	-8008
12@9	-8009
1455	-8010
14<5	-8011
1552	-8012
17<6	-8013
2%+2	-8014
2*0+	-8015
2032	-8016
21()	-8017
220+	-8018
2212	-8019
227<	-8020
2420	-8021
2>2>	-8022
3+#+	-8023
3+00	-8024
3+5<	-8025
3+<4	-8026
30(*	-8027
3011	-8028
31*0	-8029
31>9	-8030
320#	-8031
3221	-8032
3237	-8033
3243	-8034
3253	-8035
32>:	-8036
3372	-8037
33<3	-8038
3424	-8039
3430	-8040
34<5	-8041
35+1	-8042
37<>	-8043
4112	-8044
42*+	-8045
4320	-8046
472+	-8047
5+1*	-8048
5+73	-8049
523*	-8050
5233	-8051
5401	-8052
5443	-8053
5467	-8054
5543	-8055
56<@	-8056
5741	-8057
5<33	-8058
5<57	-8059
5<75	-8060
5>56	-8061
6202	-8062
64>7	-8063
67@2	-8064
687>	-8065
6<31	-8066
7+44	-8067
721+	-8068
7431	-8069
7433	-8070
75+0	-8071
755?	-8072
7685	-8073
76<@	-8074
7764	-8075
77<6	-8076
8373	-8077
8>3@	-8078
8>58	-8079
9@?>	-8080
:726	-8081
<672	-8082
<6<<	-8083
<714	-8084
<73+	-8085
<>34	-8086
<>72	-8087
<><6	-8088
<@?<	-8089
>36+	-8090
>76>	-8091
>><@	-8092
>@:?	-8093
@4>5	-8094
@4>:	-8095
@4?:	-8096
@<:7	-8097
写冠冠冠	-8098
冠冕冠冠	-8099
#%$%&	-8100
#%%%$	-8101
#%($%	-8102
#%((&	-8103
#%*%(	-8104
#%*&(	-8105
#%022	-8106
#&#%$	-8107
#&&%$	-8108
#&((%	-8109
#&*0+	-8110
#(%(&	-8111
#(03+	-8112
#+20(	-8113
$%#$%	-8114
$%($#	-8115
$%(%#	-8116
$%(%(	-8117
$((&#	-8118
$(*+(	-8119
$(*+*	-8120
$*+**	-8121
$*++(	-8122
%$$%%	-8123
%$(%(	-8124
%%$%(	-8125
%%%%)	-8126
%%(*%	-8127
%&%%!	-8128
%&(*(	-8129
%&)%%	-8130
%(%$%	-8131
%(%%)	-8132
%(%()	-8133
%((&$	-8134
%((*&	-8135
%(*+(	-8136
%(+*+	-8137
%*++*	-8138
%*34<	-8139
%+132	-8140
%0232	-8141
&%%&#	-8142
&&&%&	-8143
&(*%*	-8144
($(%%	-8145
($(($	-8146
(%&%%	-8147
(%((#	-8148
(%*($	-8149
(%*+%	-8150
(&**+	-8151
(&*++	-8152
(($*(	-8153
((%%%	-8154
((%()	-8155
((%*&	-8156
((&%&	-8157
((&%(	-8158
(((#(	-8159
(((%(	-8160
((++*	-8161
((0(*	-8162
((12*	-8163
((12+	-8164
((152	-8165
(*%+(	-8166
(*&*%	-8167
(*(%%	-8168
(*+**	-8169
(*232	-8170
(+%(%	-8171
(+%*(	-8172
(++($	-8173
(++02	-8174
(+00$	-8175
)%&%#	-8176
)%((&	-8177
)((0+	-8178
)*+*(	-8179
)*212	-8180
*(0(&	-8181
*(0(*	-8182
*(1$2	-8183
**%(%	-8184
**%((	-8185
***#*	-8186
**+*(	-8187
**0(%	-8188
*+%*(	-8189
*+*%*	-8190
*+**%	-8191
*+*++	-8192
*++*%	-8193
*+1(#	-8194
*+1+2	-8195
*+10(	-8196
*+100	-8197
*+112	-8198
*+20(	-8199
*+3+1	-8200
*+31+	-8201
*256<	-8202
*>845	-8203
+*&*(	-8204
+*++*	-8205
++012	-8206
0+*%*	-8207
0+**$	-8208
0+0%%	-8209
0+0&*	-8210
0+00$	-8211
00(*(	-8212
02(7:	-8213
02+((	-8214
02032	-8215
1+0(%	-8216
1+0*+	-8217
1+00+	-8218
1+1*+	-8219
1101+	-8220
11230	-8221
12012	-8222
121*$	-8223
121*(	-8224
123+0	-8225
12354	-8226
12427	-8227
14352	-8228
2$3<@	-8229
20+0(	-8230
23<?>	-8231
257+*	-8232
3200+	-8233
3231+	-8234
3240$	-8235
3342+	-8236
34174	-8237
3433+	-8238
3473+	-8239
46+>3	-8240
4>1>?	-8241
4@46+	-8242
54112	-8243
64@>7	-8244
68666	-8245
6:<54	-8246
7>@<5	-8247
86054	-8248
<)04@	-8249
<576@	-8250
<62>4	-8251
<>1@4	-8252
<>4@8	-8253
<>714	-8254
<@:7+	-8255
>2@::	-8256
>37>6	-8257
><6<6	-8258
?:>?4	-8259
#$%%%%	-8260
#$((%(	-8261
#%%(%(	-8262
#&((%(	-8263
#(0227	-8264
#*14<<	-8265
#+35**	-8266
%$%%&%	-8267
%%%%&%	-8268
%%%($%	-8269
%%&%%$	-8270
%&(((*	-8271
%(%*%%	-8272
%((*((	-8273
(%*(%(	-8274
(&*(**	-8275
(((*%%	-8276
(((*&%	-8277
((*%((	-8278
((0+(5	-8279
)+45*(	-8280
*+0*+*	-8281
*+3+29	-8282
+233+*	-8283
0+0*((	-8284
0+00+*	-8285
01(0+*	-8286
025+46	-8287
1+12**	-8288
1200+*	-8289
5**340	-8290
67?21<	-8291
7>>:>4	-8292
86+512	-8293
<54074	-8294
>+254@	-8295
>6<>51	-8296
@71542	-8297
@<85(*	-8298
#$14427	-8299
%$*+1+$	-8300
($*+1+%	-8301
((0+!7>	-8302
*+3548@	-8303
132+3<4	-8304
3@462>4	-8305
<><12>:	-8306
>862*41	-8307
?<64@8>	-8308
@464@>7	-8309
冒冠冠冠冠冠冒	-8310
#%02248:	-8311
%&13<::?	-8312
231*3400	-8313
6<140242	-8314
9@>>?4@<	-8315
??:@<@4@	-8316
冠冠冠冠冠冠冠冉	-8317
021*%0+(*	-8318
6251012**	-8319
6431+12(*	-8320
6453+3420	-8321
767>62*24	-8322
<>2@?<6<7	-8323
>>52*41)4	-8324
冠冠冒冠冠冠冠冠冠	-8325
冠冠冠冠冠冠冠冠冉	-8326
86<6303410	-8327
??:@4@4@>2	-8328
冠冠冠冠冠冠冒冠冠冠	-8329
56203<30+1(	-8330
77+0441(+*$	-8331
>4544520121*	-8332
!<	-8333
)>	-8334
+8	-8335
2@	-8336
8(	-8337
@(	-8338
傘儉	-8339
傲優	-8340
傳儡	-8341
像僧	-8342
像充	-8343
僧優	-8344
價優	-8345
儉傳	-8346
儉儡	-8347
儿元	-8348
充允	-8349
免充	-8350
!2*	-8351
!2+	-8352
##*	-8353
#$2	-8354
#%5	-8355
#)*	-8356
#)+	-8357
#25	-8358
#6?	-8359
$%2	-8360
$2&	-8361
$41	-8362
%#2	-8363
%2$	-8364
%45	-8365
&!!	-8366
&*1	-8367
&1(	-8368
()*	-8369
(27	-8370
)(1	-8371
))*	-8372
)00	-8373
)74	-8374
*4$	-8375
+)(	-8376
+0<	-8377
+4(	-8378
+7>	-8379
00#	-8380
01#	-8381
01<	-8382
1$4	-8383
10!	-8384
16:	-8385
1>2	-8386
2&(	-8387
2*3	-8388
22:	-8389
250	-8390
2<4	-8391
2<7	-8392
2<>	-8393
3+<	-8394
353	-8395
370	-8396
3>>	-8397
40%	-8398
402	-8399
42)	-8400
427	-8401
4<7	-8402
4<:	-8403
51#	-8404
51$	-8405
516	-8406
5:<	-8407
5:@	-8408
5<0	-8409
5>@	-8410
62<	-8411
63*	-8412
631	-8413
632	-8414
635	-8415
637	-8416
673	-8417
6:8	-8418
6:>	-8419
6?9	-8420
70*	-8421
702	-8422
730	-8423
757	-8424
77&	-8425
789	-8426
8@8	-8427
9??	-8428
9@7	-8429
:86	-8430
::6	-8431
::>	-8432
:<2	-8433
:>5	-8434
<31	-8435
<4$	-8436
<4(	-8437
<65	-8438
<86	-8439
<>*	-8440
><<	-8441
>>6	-8442
>>7	-8443
>>9	-8444
>@<	-8445
?43	-8446
?74	-8447
?8:	-8448
?<%	-8449
?<5	-8450
@43	-8451
@4?	-8452
@7<	-8453
@>4	-8454
@>:	-8455
@?7	-8456
!#$&	-8457
!%&&	-8458
!(((	-8459
#!%#	-8460
#!*(	-8461
##&#	-8462
#$$&	-8463
#$*#	-8464
#%#&	-8465
#%$&	-8466
#%&*	-8467
#&+#	-8468
#($*	-8469
#(*$	-8470
#+%#	-8471
#++$	-8472
#+12	-8473
#+33	-8474
#2++	-8475
#32)	-8476
$!$&	-8477
$#$$	-8478
$#$&	-8479
$#&(	-8480
$#+(	-8481
$$#(	-8482
$$$(	-8483
$$(*	-8484
$%#!	-8485
$%$&	-8486
$%%)	-8487
$%**	-8488
$%+&	-8489
$%+(	-8490
$&#%	-8491
$&%!	-8492
$&++	-8493
$(+(	-8494
$(+*	-8495
$(2+	-8496
$)($	-8497
$*+1	-8498
$+%$	-8499
$+(%	-8500
$+*&	-8501
$0+*	-8502
$467	-8503
$4>?	-8504
%!#$	-8505
%!#&	-8506
%!%(	-8507
%#%&	-8508
%#&*	-8509
%#(+	-8510
%#)%	-8511
%#++	-8512
%$$!	-8513
%%$+	-8514
%%&+	-8515
%%0(	-8516
%%0*	-8517
%&++	-8518
%&00	-8519
%&15	-8520
%(!#	-8521
%(##	-8522
%($+	-8523
%()(	-8524
%)$)	-8525
%*02	-8526
%+%$	-8527
%+*&	-8528
%+*0	-8529
%+0%	-8530
%+13	-8531
%+34	-8532
%0*(	-8533
%0+$	-8534
%11+	-8535
%6<7	-8536
&%!#	-8537
&%#&	-8538
&&!#	-8539
&&*(	-8540
&&++	-8541
&($*	-8542
&(&(	-8543
&(&)	-8544
&(2+	-8545
&)!)	-8546
&*+$	-8547
&+(&	-8548
&+02	-8549
&0*+	-8550
&0+1	-8551
&11+	-8552
&236	-8553
($(!	-8554
($*2	-8555
($+*	-8556
(%!#	-8557
(%%!	-8558
(%*!	-8559
(%02	-8560
(%13	-8561
(%20	-8562
(&$$	-8563
(&&#	-8564
(&&$	-8565
(&*0	-8566
(&2*	-8567
(($+	-8568
(()+	-8569
()$(	-8570
()&(	-8571
()(%	-8572
(**0	-8573
(*32	-8574
(+#&	-8575
(+&&	-8576
(0*(	-8577
(12*	-8578
(122	-8579
)!&%	-8580
)!((	-8581
)!)%	-8582
)#%(	-8583
)#&%	-8584
)%(&	-8585
)%*+	-8586
)&!&	-8587
)&*+	-8588
)(0+	-8589
)*+1	-8590
)+*(	-8591
)++%	-8592
)++(	-8593
)+10	-8594
)+20	-8595
)2+*	-8596
)73>	-8597
*$(&	-8598
*$0(	-8599
*%#%	-8600
*%#+	-8601
*%)%	-8602
*%)(	-8603
*%01	-8604
*%34	-8605
*&#+	-8606
*&++	-8607
*&10	-8608
*(##	-8609
*((+	-8610
*(11	-8611
**$$	-8612
**$+	-8613
***(	-8614
**3+	-8615
*+)$	-8616
*++1	-8617
*+1!	-8618
*01(	-8619
*1%*	-8620
*1+%	-8621
*143	-8622
*2(*	-8623
*21$	-8624
*21&	-8625
*213	-8626
*22%	-8627
*22)	-8628
*41+	-8629
+#((	-8630
+#22	-8631
+$((	-8632
+%+0	-8633
+(*%	-8634
+(+0	-8635
+(0+	-8636
+(21	-8637
+*$#	-8638
+*$$	-8639
+*&#	-8640
+*&+	-8641
+**0	-8642
++%+	-8643
++()	-8644
++10	-8645
++13	-8646
++34	-8647
+014	-8648
+02&	-8649
+102	-8650
+12+	-8651
+2++	-8652
+210	-8653
+223	-8654
+342	-8655
+352	-8656
+452	-8657
0$00	-8658
0&(%	-8659
0&*%	-8660
0(()	-8661
0(0&	-8662
0(11	-8663
0*%0	-8664
0*23	-8665
0+%)	-8666
0+%+	-8667
0+13	-8668
0001	-8669
0017	-8670
012+	-8671
02+3	-8672
02+7	-8673
023*	-8674
0235	-8675
0273	-8676
04+%	-8677
047>	-8678
0>4>	-8679
1%0*	-8680
1%10	-8681
1(2+	-8682
1*%*	-8683
1***	-8684
1*20	-8685
1+*%	-8686
1+1)	-8687
1+2+	-8688
1+20	-8689
10++	-8690
10+1	-8691
12+?	-8692
1223	-8693
12<2	-8694
13%0	-8695
1374	-8696
14*0	-8697
14*2	-8698
1411	-8699
1451	-8700
1477	-8701
147>	-8702
15<6	-8703
1<44	-8704
1<54	-8705
2*((	-8706
20&*	-8707
21&0	-8708
210$	-8709
2121	-8710
213<	-8711
22*&	-8712
22*(	-8713
22+(	-8714
2204	-8715
2222	-8716
2237	-8717
232+	-8718
2321	-8719
2422	-8720
251+	-8721
2774	-8722
3+74	-8723
3021	-8724
31+#	-8725
32#+	-8726
32++	-8727
322+	-8728
3333	-8729
3347	-8730
3434	-8731
3472	-8732
3477	-8733
34>:	-8734
35+0	-8735
372&	-8736
3727	-8737
37<7	-8738
3<20	-8739
42+2	-8740
4212	-8741
430+	-8742
4532	-8743
52*4	-8744
5200	-8745
522*	-8746
5220	-8747
525<	-8748
532*	-8749
542*	-8750
544*	-8751
5451	-8752
5457	-8753
54>7	-8754
56:7	-8755
5723	-8756
5745	-8757
57<>	-8758
5<14	-8759
5<41	-8760
6+>4	-8761
645+	-8762
64>4	-8763
64>>	-8764
65><	-8765
667>	-8766
66<6	-8767
73+0	-8768
7741	-8769
7>47	-8770
8>7?	-8771
95<+	-8772
:>+>	-8773
:@88	-8774
<424	-8775
<542	-8776
<554	-8777
<5<4	-8778
<6<@	-8779
<752	-8780
<>46	-8781
<>:7	-8782
<>><	-8783
>433	-8784
>876	-8785
>9>4	-8786
>><7	-8787
>?<>	-8788
@?32	-8789
優儒儡儒	-8790
冠冠冠养	-8791
!%(%(	-8792
!((((	-8793
#$*((	-8794
#%%*%	-8795
#%023	-8796
#&$%&	-8797
#&%((	-8798
#&*%%	-8799
#(+*%	-8800
#(0+1	-8801
#*+0+	-8802
#+572	-8803
$#$((	-8804
$%$%%	-8805
$%%%#	-8806
$%%*(	-8807
$%(($	-8808
$%((&	-8809
$&%%$	-8810
$(%%(	-8811
$+*++	-8812
$<@?>	-8813
%$%$#	-8814
%%$%$	-8815
%%$&%	-8816
%%%+*	-8817
%%(#&	-8818
%%*%(	-8819
%%*0+	-8820
%&(&%	-8821
%&((!	-8822
%&*%(	-8823
%&15<	-8824
%(#((	-8825
%($#&	-8826
%($%$	-8827
%($%(	-8828
%($*%	-8829
%(&#%	-8830
%(($%	-8831
%((*$	-8832
%(*++	-8833
%+**+	-8834
&%%&)	-8835
&%&%&	-8836
&&$%%	-8837
&((%$	-8838
&(((%	-8839
&0021	-8840
($*($	-8841
($*+(	-8842
(%$%%	-8843
(%$((	-8844
(%&((	-8845
(%((!	-8846
(%(*%	-8847
(%*%(	-8848
(%*+0	-8849
(%0(*	-8850
(%0+%	-8851
(%354	-8852
(&12&	-8853
((#((	-8854
(($%(	-8855
((&($	-8856
((&(&	-8857
(((+*	-8858
(((0(	-8859
((*($	-8860
((+*&	-8861
((024	-8862
((374	-8863
(*$**	-8864
(*%*%	-8865
(*%**	-8866
(*0*$	-8867
(*21+	-8868
(+#++	-8869
(+%((	-8870
(+%*+	-8871
(+((%	-8872
(+0(%	-8873
(+0+0	-8874
(+012	-8875
(0((*	-8876
(0+0+	-8877
(0+00	-8878
)$%%&	-8879
)$((&	-8880
)%$%%	-8881
)%%(%	-8882
)($%%	-8883
*$04+	-8884
*&*((	-8885
*&*+0	-8886
*&00+	-8887
*(#((	-8888
*($((	-8889
*(%%$	-8890
*(&(%	-8891
*(*#*	-8892
*(*32	-8893
*(+($	-8894
*(+*%	-8895
*(1+$	-8896
**+1+	-8897
**20+	-8898
**232	-8899
*+((%	-8900
*+(*$	-8901
*+(*&	-8902
*+(0+	-8903
*+*+*	-8904
*++*$	-8905
*+0()	-8906
*+0++	-8907
*+002	-8908
*+1%3	-8909
*+1((	-8910
*+2*$	-8911
*+2<9	-8912
*+31&	-8913
*+56<	-8914
*14<<	-8915
*200+	-8916
*2232	-8917
*2334	-8918
*2352	-8919
+*2+*	-8920
++**&	-8921
++01+	-8922
++13+	-8923
+0(+*	-8924
+0+*(	-8925
+0220	-8926
+220+	-8927
0+(+*	-8928
0+0(&	-8929
0+0*(	-8930
0+012	-8931
0+1**	-8932
0+102	-8933
0+312	-8934
0+432	-8935
00+*(	-8936
00+0*	-8937
0120*	-8938
0121+	-8939
02%>9	-8940
02*((	-8941
02**+	-8942
02*+*	-8943
020++	-8944
02232	-8945
1+0%(	-8946
1+0(+	-8947
1+0*(	-8948
11%*+	-8949
1142+	-8950
12**+	-8951
121%0	-8952
1242*	-8953
12552	-8954
142*+	-8955
2(3<@	-8956
241$0	-8957
323+*	-8958
33442	-8959
34332	-8960
34352	-8961
34534	-8962
3<<:7	-8963
4>+64	-8964
4>9:@	-8965
5(1+*	-8966
54121	-8967
5431+	-8968
5<334	-8969
5<354	-8970
716<@	-8971
77+14	-8972
84574	-8973
845<4	-8974
:+*22	-8975
:6:>?	-8976
<)14@	-8977
<7513	-8978
<7704	-8979
<@2?8	-8980
<@2@?	-8981
>*?<>	-8982
>4@>2	-8983
?:>+>	-8984
冠冠冒冠冒	-8985
#$(%((	-8986
#%0++?	-8987
#*172+	-8988
%$*(((	-8989
%%%%$%	-8990
%%%*%(	-8991
%%((%(	-8992
%%(((%	-8993
%&((((	-8994
%((%((	-8995
%(+2+2	-8996
(%(($%	-8997
((%*%%	-8998
(((*&(	-8999
((0+%7	-9000
)$((%%	-9001
*%*(**	-9002
*(*%(%	-9003
*+*(((	-9004
*+**((	-9005
*+0(#(	-9006
*+00+0	-9007
*+1***	-9008
*+33$4	-9009
+3<>04	-9010
0+00%(	-9011
0+1120	-9012
0210+0	-9013
0222>:	-9014
1+33+0	-9015
1210(0	-9016
13+4@9	-9017
15<@4@	-9018
23<>14	-9019
3321+1	-9020
35**0+	-9021
523120	-9022
63>58@	-9023
68:625	-9024
7>@:>4	-9025
864631	-9026
8:<*23	-9027
9>023+	-9028
:@4@46	-9029
<32646	-9030
<62?<>	-9031
<@4?>2	-9032
>6<650	-9033
><?144	-9034
?84772	-9035
?:3341	-9036
@<1542	-9037
冠冠冠冠冠写	-9038
#%%*+1(	-9039
#%%*+1*	-9040
%%(***%	-9041
(&02%<>	-9042
)#*+24:	-9043
*+11+<@	-9044
*+12&<@	-9045
*27><43	-9046
023**1+	-9047
023+43>	-9048
0784552	-9049
12*12+*	-9050
140*+0(	-9051
3<>?<@4	-9052
52@765>	-9053
7168666	-9054
86+302(	-9055
:74>5>6	-9056
>57>6:@	-9057
@2><@>4	-9058
@4@:9?4	-9059
冠冠冠冠冠冠养	-9060
冠冠冠冠冠冠冉	-9061
%$%%(%&#	-9062
231*3420	-9063
525400&*	-9064
52646<?6	-9065
<64?7@6>	-9066
冠冠冠冠冒冠冠冠	-9067
冠冠冠冠冠冠冠兽	-9068
#%%*+1%7:	-9069
#&01&46:4	-9070
6431+34+*	-9071
<>2@?<><7	-9072
冠冒冠冠冠冠冠冠冒	-9073
<6743233+*	-9074
#45368:623*	-9075
((0202<>702	-9076
32*+43**0(&	-9077
372*243*(0(	-9078
572*241((0(	-9079
冠冠冠冠冠冠冠冠冠冠写	-9080
冠冒冠冠冠冠冠冠冠冠冠冠冠冠冠	-9081
)5	-9082
)8	-9083
5#	-9084
6&	-9085
8*	-9086
?#	-9087
傘像	-9088
傘僧	-9089
傲僵	-9090
傳僧	-9091
傻儡	-9092
像傻	-9093
像儀	-9094
僧僵	-9095
僳僵	-9096
儀儒	-9097
儡充	-9098
優傘	-9099
儿僧	-9100
儿儿	-9101
关冒	-9102
兽兽	-9103
!$*	-9104
!+!	-9105
!11	-9106
#!0	-9107
##)	-9108
#2(	-9109
#2@	-9110
$!+	-9111
$&?	-9112
$0)	-9113
$13	-9114
$2#	-9115
%0!	-9116
%0)	-9117
%2#	-9118
%27	-9119
%3<	-9120
&!(	-9121
&&0	-9122
&46	-9123
(!0	-9124
(1%	-9125
(2<	-9126
(35	-9127
(47	-9128
(>:	-9129
)$2	-9130
))#	-9131
)0*	-9132
)03	-9133
*#)	-9134
*)&	-9135
*2)	-9136
+$0	-9137
+$4	-9138
+%3	-9139
+)!	-9140
+2>	-9141
+35	-9142
+51	-9143
+68	-9144
0$+	-9145
0+6	-9146
005	-9147
03*	-9148
037	-9149
075	-9150
0<7	-9151
0>1	-9152
0>4	-9153
1$%	-9154
1%%	-9155
1&3	-9156
1(#	-9157
1(3	-9158
1*&	-9159
1*5	-9160
1>7	-9161
2#%	-9162
2&)	-9163
2(*	-9164
203	-9165
22!	-9166
23&	-9167
2<5	-9168
2?:	-9169
3&0	-9170
3&1	-9171
3(*	-9172
3(+	-9173
30$	-9174
30)	-9175
30*	-9176
31)	-9177
336	-9178
357	-9179
3<:	-9180
3>7	-9181
4+*	-9182
4+4	-9183
400	-9184
410	-9185
411	-9186
42&	-9187
44*	-9188
46:	-9189
5+<	-9190
52$	-9191
52)	-9192
52<	-9193
53(	-9194
538	-9195
54$	-9196
54?	-9197
584	-9198
613	-9199
64*	-9200
652	-9201
6:9	-9202
6<8	-9203
7+7	-9204
7+>	-9205
71$	-9206
71%	-9207
72&	-9208
735	-9209
74*	-9210
7::	-9211
7:@	-9212
7<>	-9213
7>%	-9214
83<	-9215
845	-9216
86:	-9217
87+	-9218
8:@	-9219
8<>	-9220
95<	-9221
96<	-9222
:22	-9223
:34	-9224
:85	-9225
::9	-9226
<+4	-9227
<3*	-9228
<4&	-9229
<41	-9230
<48	-9231
<5*	-9232
<7*	-9233
<<4	-9234
>16	-9235
>1>	-9236
>20	-9237
>35	-9238
>4+	-9239
>6?	-9240
>87	-9241
>8?	-9242
>99	-9243
><8	-9244
?&2	-9245
?22	-9246
?54	-9247
?56	-9248
?66	-9249
?7<	-9250
?8>	-9251
?8?	-9252
?<1	-9253
@2@	-9254
AAA	-9255
優僳儡	-9256
充僳儡	-9257
!$%(	-9258
!%#$	-9259
!(#$	-9260
!(++	-9261
##$)	-9262
#$%+	-9263
#$*2	-9264
#%($	-9265
#%+&	-9266
#&!)	-9267
#&$$	-9268
#&(!	-9269
#&*)	-9270
#&*0	-9271
#&17	-9272
#(0%	-9273
#)%%	-9274
#)&%	-9275
#*$#	-9276
#*$(	-9277
#*$*	-9278
#**+	-9279
#+$#	-9280
#+&(	-9281
#+*$	-9282
#0&*	-9283
#2+#	-9284
$!$$	-9285
$#%#	-9286
$#+0	-9287
$#22	-9288
$$!$	-9289
$$$!	-9290
$$+2	-9291
$%$!	-9292
$%*&	-9293
$%+%	-9294
$&#(	-9295
$&$)	-9296
$&&$	-9297
$&(*	-9298
$($*	-9299
$(&(	-9300
$(&*	-9301
$(02	-9302
$)$)	-9303
$)&&	-9304
$)(&	-9305
$*$*	-9306
$*0$	-9307
$*02	-9308
$*12	-9309
$*42	-9310
$+(&	-9311
$+*$	-9312
$++(	-9313
$+12	-9314
$042	-9315
%!#(	-9316
%!$&	-9317
%!%$	-9318
%#(!	-9319
%#+$	-9320
%$$&	-9321
%$0*	-9322
%$00	-9323
%%*0	-9324
%%3<	-9325
%&(!	-9326
%&(+	-9327
%&*0	-9328
%(*!	-9329
%(+)	-9330
%(0%	-9331
%(1+	-9332
%)(#	-9333
%)(&	-9334
%*(0	-9335
%**0	-9336
%*0(	-9337
%*12	-9338
%++#	-9339
%++&	-9340
%+33	-9341
%0**	-9342
%0++	-9343
%032	-9344
%21+	-9345
&!$&	-9346
&#!)	-9347
&#&#	-9348
&#&$	-9349
&$+(	-9350
&$+2	-9351
&&(#	-9352
&&+*	-9353
&(!%	-9354
&(%#	-9355
&(%)	-9356
&((!	-9357
&()$	-9358
&)$#	-9359
&)%%	-9360
&*%0	-9361
&*+&	-9362
&*+2	-9363
&*+4	-9364
&+0*	-9365
&+1+	-9366
&+12	-9367
&0+*	-9368
&02+	-9369
&134	-9370
&212	-9371
(!#%	-9372
(#%)	-9373
(#%+	-9374
(#&#	-9375
(#++	-9376
($%*	-9377
($&$	-9378
($&%	-9379
($&)	-9380
($*)	-9381
($00	-9382
($7?	-9383
(%)&	-9384
(%00	-9385
(&##	-9386
(&0&	-9387
((#&	-9388
((2+	-9389
((32	-9390
()$#	-9391
()%&	-9392
()&*	-9393
()++	-9394
(*$&	-9395
(*(+	-9396
(*25	-9397
(+#%	-9398
(+)(	-9399
(+15	-9400
(+2%	-9401
(+24	-9402
(0*+	-9403
(134	-9404
(321	-9405
(3<>	-9406
(736	-9407
)!#&	-9408
)!&&	-9409
)#$(	-9410
)#%*	-9411
)$##	-9412
)$%+	-9413
)$)#	-9414
)$*&	-9415
)$*+	-9416
)%#&	-9417
)%&$	-9418
)%+0	-9419
)%21	-9420
)&&&	-9421
)&)$	-9422
)(%$	-9423
)(0(	-9424
))$%	-9425
))%%	-9426
))%(	-9427
)*&*	-9428
)++#	-9429
*#**	-9430
*$#!	-9431
*%*)	-9432
*%1(	-9433
*%20	-9434
*&#*	-9435
*(!)	-9436
**&+	-9437
***$	-9438
***+	-9439
**2+	-9440
**25	-9441
**5<	-9442
*+&$	-9443
*+)%	-9444
*+)+	-9445
*+3*	-9446
*+7>	-9447
*141	-9448
*2#+	-9449
*2*(	-9450
*2+&	-9451
*245	-9452
*278	-9453
*321	-9454
*343	-9455
+#(*	-9456
+$(+	-9457
+%(+	-9458
+%+(	-9459
+%20	-9460
+&+(	-9461
+)+*	-9462
+*$0	-9463
+*&!	-9464
+*(+	-9465
+**2	-9466
+*42	-9467
++(&	-9468
++)&	-9469
++11	-9470
+0%1	-9471
+0&%	-9472
+0(+	-9473
+02*	-9474
+043	-9475
+1(*	-9476
+1++	-9477
+12*	-9478
+124	-9479
+142	-9480
+2(+	-9481
+2**	-9482
+2*4	-9483
+20$	-9484
+20*	-9485
+21*	-9486
+214	-9487
+230	-9488
+241	-9489
+26<	-9490
+277	-9491
+320	-9492
+323	-9493
+5<7	-9494
0#**	-9495
0$*$	-9496
0%#$	-9497
0%+2	-9498
0%0%	-9499
0&(&	-9500
0(+(	-9501
0(+0	-9502
0(0$	-9503
0*$%	-9504
0*&(	-9505
0*)*	-9506
0**1	-9507
0*11	-9508
0*2*	-9509
0*34	-9510
0+#*	-9511
0+&(	-9512
0+)*	-9513
0+*1	-9514
0++&	-9515
00$)	-9516
00*1	-9517
0024	-9518
01$*	-9519
02&*	-9520
02(5	-9521
020#	-9522
0217	-9523
021<	-9524
0249	-9525
0253	-9526
025<	-9527
0325	-9528
044+	-9529
0445	-9530
0636	-9531
1%30	-9532
1(10	-9533
1(2*	-9534
1(32	-9535
1*13	-9536
1*32	-9537
1+!?	-9538
1+%+	-9539
1+*$	-9540
1+0!	-9541
1+42	-9542
11&#	-9543
11&0	-9544
1124	-9545
1145	-9546
12%8	-9547
12*4	-9548
122&	-9549
1325	-9550
1347	-9551
1423	-9552
14<6	-9553
14@8	-9554
15+*	-9555
1720	-9556
2*%(	-9557
20&(	-9558
20*2	-9559
2024	-9560
21%*	-9561
2144	-9562
22(&	-9563
22+0	-9564
22+4	-9565
2323	-9566
2324	-9567
24@9	-9568
3*00	-9569
3+($	-9570
3010	-9571
3013	-9572
326<	-9573
3315	-9574
3343	-9575
34*2	-9576
3467	-9577
34<2	-9578
35:@	-9579
35<6	-9580
3744	-9581
37<5	-9582
3<<<	-9583
3<??	-9584
3><6	-9585
4*20	-9586
4+*+	-9587
42%2	-9588
43<8	-9589
44++	-9590
441+	-9591
4414	-9592
4422	-9593
4432	-9594
4<<>	-9595
5+3+	-9596
5125	-9597
5143	-9598
5202	-9599
5250	-9600
5253	-9601
52>:	-9602
5320	-9603
5343	-9604
54*4	-9605
541+	-9606
5450	-9607
546<	-9608
547>	-9609
55<5	-9610
55<7	-9611
5621	-9612
5636	-9613
5757	-9614
57<7	-9615
5<71	-9616
5><6	-9617
6+52	-9618
616?	-9619
6232	-9620
6313	-9621
6410	-9622
6467	-9623
646<	-9624
6473	-9625
64>6	-9626
64@8	-9627
6:66	-9628
6:><	-9629
6<77	-9630
6?<@	-9631
6@:?	-9632
7+12	-9633
7174	-9634
7232	-9635
7343	-9636
7432	-9637
7441	-9638
7521	-9639
7544	-9640
7621	-9641
773>	-9642
777+	-9643
7>21	-9644
7>8<	-9645
7>:7	-9646
7>:?	-9647
7><3	-9648
8546	-9649
8573	-9650
8768	-9651
8<21	-9652
8>5@	-9653
9@8@	-9654
<3$0	-9655
<634	-9656
<6<5	-9657
<712	-9658
<764	-9659
<>4>	-9660
<??:	-9661
<@:6	-9662
>313	-9663
>4@8	-9664
>7<>	-9665
>8:>	-9666
?4>3	-9667
?5<>	-9668
?8:>	-9669
?<>4	-9670
@$4>	-9671
@45+	-9672
@46+	-9673
@4>2	-9674
@4@8	-9675
@76?	-9676
ACBC	-9677
BCBA	-9678
冠冒冠养	-9679
冠冠写冠	-9680
!%%&%	-9681
#$(%&	-9682
#$((&	-9683
#%%%&	-9684
#%%&%	-9685
#%%($	-9686
#%((%	-9687
#%*&#	-9688
#%*27	-9689
#&%%&	-9690
#&(*+	-9691
#($%%	-9692
#(%%(	-9693
#(&((	-9694
#((*(	-9695
#(+0%	-9696
#(0+0	-9697
#++*+	-9698
#+01+	-9699
$$$((	-9700
$%(%$	-9701
$&$((	-9702
$(%%#	-9703
$(%(%	-9704
$(&((	-9705
$((%$	-9706
$((+(	-9707
$(+((	-9708
$*(%%	-9709
$*((%	-9710
$*+(*	-9711
%#++%	-9712
%$&%%	-9713
%$((%	-9714
%$*((	-9715
%$**&	-9716
%%$#%	-9717
%%$#&	-9718
%%$%)	-9719
%%%&%	-9720
%%%&)	-9721
%%%*$	-9722
%%%**	-9723
%%%*+	-9724
%%%+(	-9725
%%&&&	-9726
%%&($	-9727
%%((!	-9728
%&((%	-9729
%(!%%	-9730
%((%)	-9731
%(*($	-9732
%(0+(	-9733
%*$((	-9734
%*%(#	-9735
%*%*+	-9736
%*&**	-9737
%**+0	-9738
%*0+*	-9739
%+%((	-9740
%0(((	-9741
%00+0	-9742
&%$#&	-9743
&%%&%	-9744
&(%%(	-9745
&(%%)	-9746
&(%(%	-9747
&(&((	-9748
&(*(&	-9749
&*(%%	-9750
&*2+*	-9751
($(%(	-9752
($*%%	-9753
(%#%%	-9754
(%&%&	-9755
(%(#&	-9756
(%(%$	-9757
(%(%(	-9758
(%*%*	-9759
(%**(	-9760
(%0+&	-9761
(%0+(	-9762
(%01+	-9763
(%11%	-9764
(&*%(	-9765
(($%$	-9766
(($($	-9767
((%%)	-9768
((&#$	-9769
((&(#	-9770
(((%$	-9771
((((#	-9772
((+*%	-9773
((0%(	-9774
((0(!	-9775
((0(2	-9776
((0+4	-9777
(*$*(	-9778
(*+++	-9779
(*34<	-9780
(+&(%	-9781
(+((&	-9782
(+(*(	-9783
(+*($	-9784
(+**&	-9785
(++(%	-9786
(+++(	-9787
(+0&(	-9788
(+0((	-9789
(+0(*	-9790
(+0*$	-9791
(+0*(	-9792
(+10+	-9793
(+20(	-9794
(+232	-9795
(0%*(	-9796
(0+(%	-9797
(0+(*	-9798
(0+**	-9799
(0++(	-9800
(03+4	-9801
)$(($	-9802
)%$%&	-9803
)%%*%	-9804
)&(%%	-9805
))#((	-9806
*$00+	-9807
*%(%%	-9808
*%12$	-9809
*%57<	-9810
*&*($	-9811
*&0**	-9812
*(%*(	-9813
*(*%#	-9814
*(0+*	-9815
*(12&	-9816
**&((	-9817
**+*$	-9818
**+0+	-9819
*+((&	-9820
*+*%$	-9821
*+*(%	-9822
*+*()	-9823
*+**(	-9824
*+*+(	-9825
*++(%	-9826
*+0%%	-9827
*+0&(	-9828
*+0+%	-9829
*+1++	-9830
*+1+1	-9831
*+12%	-9832
*+122	-9833
*+3+0	-9834
*+32$	-9835
*0%0+	-9836
*2+*$	-9837
*2+02	-9838
*2112	-9839
*2132	-9840
*5+++	-9841
+*$(%	-9842
+**++	-9843
+*+((	-9844
+*++0	-9845
++*+*	-9846
++0+*	-9847
++00+	-9848
++21(	-9849
+0+2(	-9850
+00+0	-9851
0+((%	-9852
0+*0$	-9853
0++*+	-9854
0+1((	-9855
0+20(	-9856
0+332	-9857
00+0(	-9858
00210	-9859
01212	-9860
02$<>	-9861
022+(	-9862
02212	-9863
0243+	-9864
03*75	-9865
1+0%*	-9866
1+01+	-9867
12134	-9868
122*%	-9869
122*(	-9870
123*%	-9871
12300	-9872
12312	-9873
12334	-9874
1243+	-9875
14764	-9876
15<35	-9877
2(5<@	-9878
201+*	-9879
212+*	-9880
3230+	-9881
32320	-9882
3233+	-9883
3443+	-9884
5+312	-9885
5+42+	-9886
5211+	-9887
52@:@	-9888
5411+	-9889
54132	-9890
54304	-9891
5433+	-9892
54332	-9893
54732	-9894
5<754	-9895
636:@	-9896
6411+	-9897
73440	-9898
798@4	-9899
8>7?4	-9900
:>+>4	-9901
<:?>7	-9902
<<>?8	-9903
<@:>7	-9904
>367<	-9905
>431+	-9906
>>?<>	-9907
?0>4:	-9908
?3707	-9909
@3@8:	-9910
@4*44	-9911
冠冒冠冠冒	-9912
##0++8	-9913
#$%%$%	-9914
#%%*(0	-9915
#%0++8	-9916
#&(%((	-9917
$032*+	-9918
%$0+&?	-9919
%%%%$)	-9920
%%%*%%	-9921
%%(($)	-9922
%%((&%	-9923
%%(*%%	-9924
%(%(%$	-9925
%(&(%%	-9926
%((*%*	-9927
%*34<<	-9928
(%%%%%	-9929
(%(%((	-9930
(%((%%	-9931
(%((((	-9932
(%(*$#	-9933
(%(*%(	-9934
(%1+%?	-9935
(&((%(	-9936
(((*$%	-9937
((0+49	-9938
((02*5	-9939
冠	-9940
%	-9941
(	-9942
*	-9943
+	-9944
$	-9945
#	-9946
)	-9947
&	-9948
0	-9949
2	-9950
1	-9951
4	-9952
3	-9953
!	-9954
5	-9955
<	-9956
7	-9957
B	-9958
>	-9959
6	-9960
@	-9961
:	-9962
?	-9963
冒	-9964
A	-9965
▁	-9966
8	-9967
9	-9968
C	-9969
優	-9970
充	-9971
儒	-9972
冕	-9973
儀	-9974
儿	-9975
兆	-9976
养	-9977
儉	-9978
儡	-9979
僳	-9980
写	-9981
像	-9982
关	-9983
僧	-9984
冉	-9985
兽	-9986
免	-9987
元	-9988
價	-9989
允	-9990
傘	-9991
傳	-9992
冊	-9993
傲	-9994
僵	-9995
傻	-9996
